{
  "vocab_size": 832,
  "vocab": {
    " ": 0,
    "</w>": 1,
    "\u0b85": 2,
    "\u0b86": 3,
    "\u0b87": 4,
    "\u0b88": 5,
    "\u0b89": 6,
    "\u0b8a": 7,
    "\u0b8e": 8,
    "\u0b8f": 9,
    "\u0b90": 10,
    "\u0b92": 11,
    "\u0b93": 12,
    "\u0b94": 13,
    "\u0b95": 14,
    "\u0b99": 15,
    "\u0b9a": 16,
    "\u0b9c": 17,
    "\u0b9e": 18,
    "\u0b9f": 19,
    "\u0ba3": 20,
    "\u0ba4": 21,
    "\u0ba8": 22,
    "\u0ba9": 23,
    "\u0baa": 24,
    "\u0bae": 25,
    "\u0baf": 26,
    "\u0bb0": 27,
    "\u0bb1": 28,
    "\u0bb2": 29,
    "\u0bb3": 30,
    "\u0bb4": 31,
    "\u0bb5": 32,
    "\u0bb7": 33,
    "\u0bb8": 34,
    "\u0bb9": 35,
    "\u0bbe": 36,
    "\u0bbf": 37,
    "\u0bc0": 38,
    "\u0bc1": 39,
    "\u0bc2": 40,
    "\u0bc6": 41,
    "\u0bc7": 42,
    "\u0bc8": 43,
    "\u0bca": 44,
    "\u0bcb": 45,
    "\u0bcd": 46,
    " </w>": 47,
    "\u0bcd</w>": 48,
    "\u0ba9\u0bbf": 49,
    "\u0bae\u0ba9\u0bbf": 50,
    "\u0bae\u0ba9\u0bbf\u0ba4": 51,
    "\u0bae\u0ba9\u0bbf\u0ba4\u0ba9": 52,
    "\u0bc1</w>": 53,
    "\u0bcd\u0b95": 54,
    "\u0b95\u0bcd\u0b95": 55,
    "\u0bae\u0bcd</w>": 56,
    "\u0b95\u0bcd\u0b95\u0bc1</w>": 57,
    "\u0bae\u0ba9\u0bbf\u0ba4\u0ba9\u0bcd</w>": 58,
    "\u0bae\u0ba9\u0bbf\u0ba4\u0ba9\u0bc1": 59,
    "\u0bae\u0ba9\u0bbf\u0ba4\u0ba9\u0bc1\u0b95\u0bcd\u0b95\u0bc1</w>": 60,
    "\u0bbf</w>": 61,
    "\u0bc8</w>": 62,
    "\u0bcd\u0baa": 63,
    "\u0bc1\u0ba4": 64,
    "\u0b85\u0ba9": 65,
    "\u0b9a\u0bae\u0bcd</w>": 66,
    "\u0baa\u0bbe": 67,
    "\u0bcd\u0ba4": 68,
    "\u0bb2\u0bcd</w>": 69,
    "\u0bbe\u0baa": 70,
    "\u0bcd\u0baa\u0bc1</w>": 71,
    "\u0bb5\u0bc1</w>": 72,
    "\u0ba9\u0bcd</w>": 73,
    "\u0bb0\u0bbf": 74,
    "\u0bb5\u0bbf</w>": 75,
    "\u0bb0\u0bc1": 76,
    "\u0bcd\u0b9f": 77,
    "\u0b95\u0bcd\u0b95\u0bae\u0bcd</w>": 78,
    "\u0b85\u0ba9\u0bcd\u0baa\u0bc1</w>": 79,
    "\u0ba3\u0bc8</w>": 80,
    "\u0b95\u0bb0\u0bc1": 81,
    "\u0b87\u0bb0": 82,
    "\u0ba8\u0bc7": 83,
    "\u0bb0\u0bcd</w>": 84,
    "\u0b95\u0bb0\u0bc1\u0ba3\u0bc8</w>": 85,
    "\u0baa\u0bb0\u0bbf": 86,
    "\u0baa\u0bbe\u0b9a\u0bae\u0bcd</w>": 87,
    "\u0ba8\u0bc7\u0b9a\u0bae\u0bcd</w>": 88,
    "\u0b89\u0ba4": 89,
    "\u0b89\u0ba4\u0bb5\u0bbf</w>": 90,
    "\u0b87\u0bb0\u0b95\u0bcd\u0b95\u0bae\u0bcd</w>": 91,
    "\u0baa\u0bb0\u0bbf\u0bb5\u0bc1</w>": 92,
    "\u0b85\u0ba9\u0bc1\u0ba4": 93,
    "\u0b85\u0ba9\u0bc1\u0ba4\u0bbe\u0baa": 94,
    "\u0b85\u0ba9\u0bc1\u0ba4\u0bbe\u0baa\u0bae\u0bcd</w>": 95,
    "\u0bae\u0bbe": 96,
    "\u0ba8\u0bcd\u0ba4": 97,
    "\u0bb5\u0bbe": 98,
    "\u0b9f\u0bcd\u0b9f": 99,
    "\u0bcd\u0b9a": 100,
    "\u0bcd\u0bb1": 101,
    "\u0bb5\u0bbe\u0bb4": 102,
    "\u0bbf\u0bb2\u0bcd</w>": 103,
    "\u0bae\u0bc1": 104,
    "\u0ba3\u0bcd": 105,
    "\u0ba3\u0bcd\u0ba3": 106,
    "\u0bb5\u0bbe\u0bb4\u0bcd\u0b95": 107,
    "\u0bbf\u0bb0": 108,
    "\u0b9a\u0bc1</w>": 109,
    "\u0bb5\u0bbf": 110,
    "\u0bae\u0bc1\u0bb0": 111,
    "\u0bae\u0bc1\u0bb0\u0b9a\u0bc1</w>": 112,
    "\u0bb5\u0bbe\u0bb4\u0bcd\u0b95</w>": 113,
    "\u0bb3\u0bcd</w>": 114,
    "\u0bc8\u0baa": 115,
    "\u0b95\u0ba3\u0bcd\u0ba3": 116,
    "\u0b99\u0bcd\u0b95": 117,
    "\u0ba9\u0bae\u0bcd</w>": 118,
    "\u0bae\u0bbf": 119,
    "\u0baa\u0bbe\u0b9f": 120,
    "\u0b95\u0ba3\u0bcd\u0ba3\u0ba9\u0bcd</w>": 121,
    "\u0ba8\u0bbe": 122,
    "\u0bb1\u0bcd\u0bb1": 123,
    "\u0bc1\u0bae\u0bcd</w>": 124,
    "\u0bae\u0bbe\u0ba9\u0bae\u0bcd</w>": 125,
    "\u0ba4\u0bbe": 126,
    "\u0b95\u0bc1": 127,
    "\u0bc6\u0ba3": 128,
    "\u0b95\u0bbe": 129,
    "\u0baa\u0bc1\u0ba4": 130,
    "\u0bbf\u0bb0\u0bae\u0bcd</w>": 131,
    "\u0bcd\u0b9a\u0bbf</w>": 132,
    "\u0bae\u0bbf\u0bb4": 133,
    "\u0bbe</w>": 134,
    "\u0bc6\u0ba3\u0bcd</w>": 135,
    "\u0b95\u0bae\u0bcd</w>": 136,
    "\u0baf\u0bcd</w>": 137,
    "\u0bb2\u0bc8</w>": 138,
    "\u0bb2\u0bcd": 139,
    "\u0ba4\u0bae\u0bbf\u0bb4": 140,
    "\u0baa\u0bc6\u0ba3\u0bcd</w>": 141,
    "\u0bb5\u0bc7": 142,
    "\u0baf\u0bbf\u0bb2\u0bcd</w>": 143,
    "\u0bae\u0ba9\u0bbf\u0ba4\u0bbe\u0baa": 144,
    "\u0bae\u0ba9\u0bbf\u0ba4\u0bbe\u0baa\u0bbf": 145,
    "\u0bae\u0ba9\u0bbf\u0ba4\u0bbe\u0baa\u0bbf\u0bae\u0bbe\u0ba9\u0bae\u0bcd</w>": 146,
    "\u0ba4\u0bae\u0bbf\u0bb4\u0bcd</w>": 147,
    "\u0bc1\u0bae": 148,
    "\u0b9a\u0bbf": 149,
    "\u0bb5\u0bc6": 150,
    "\u0ba9\u0bcd\u0bb1": 151,
    "\u0ba3\u0bcd\u0b9f": 152,
    "\u0b9f\u0bcd\u0b9f\u0bc1</w>": 153,
    "\u0bc1\u0ba4\u0bcd\u0ba4": 154,
    "\u0b95\u0bc1\u0baf\u0bbf\u0bb2\u0bcd</w>": 155,
    "\u0baa\u0bc1\u0ba4\u0bc1\u0bae": 156,
    "\u0baa\u0bc1\u0ba4\u0bc1\u0bae\u0bc8\u0baa": 157,
    "\u0baa\u0bc1\u0ba4\u0bc1\u0bae\u0bc8\u0baa\u0bcd</w>": 158,
    "\u0ba8\u0bbe\u0b9f\u0bcd\u0b9f": 159,
    "\u0ba8\u0bbe\u0b9f\u0bcd\u0b9f\u0bbf\u0bb2\u0bcd</w>": 160,
    "\u0b9a\u0bc1\u0ba4": 161,
    "\u0b9a\u0bc1\u0ba4\u0ba8\u0bcd\u0ba4": 162,
    "\u0b9a\u0bc1\u0ba4\u0ba8\u0bcd\u0ba4\u0bbf\u0bb0\u0bae\u0bcd</w>": 163,
    "\u0b8e\u0b99\u0bcd\u0b95": 164,
    "\u0b8e\u0b99\u0bcd\u0b95\u0bb3\u0bcd</w>": 165,
    "\u0ba4\u0bbe\u0baf\u0bcd</w>": 166,
    "\u0b95\u0bcb": 167,
    "\u0bb3\u0bcd": 168,
    "\u0baa\u0bcd\u0baa\u0bc1</w>": 169,
    "\u0bae\u0bcd\u0baa": 170,
    "\u0bbf\u0baf": 171,
    "\u0bb2\u0bcd\u0bb5\u0bbf</w>": 172,
    "\u0baa\u0bcd\u0baa": 173,
    "\u0b9f\u0bc1</w>": 174,
    "\u0bb3\u0bcd\u0bb3": 175,
    "\u0b9a\u0bbe": 176,
    "\u0bc8\u0baf": 177,
    "\u0bb2\u0bae\u0bcd</w>": 178,
    "\u0ba4\u0bcb": 179,
    "\u0bcd\u0baa\u0bae\u0bcd</w>": 180,
    "\u0ba9\u0bcd\u0bb1\u0bc1</w>": 181,
    "\u0bb5\u0bc6\u0bb1\u0bcd\u0bb1": 182,
    "\u0bb5\u0bc6\u0bb1\u0bcd\u0bb1\u0bbf</w>": 183,
    "\u0b9f\u0bc1\u0ba4": 184,
    "\u0b8e\u0ba9\u0bcd</w>": 185,
    "\u0baa\u0bbe\u0b9f\u0bc1\u0bae\u0bcd</w>": 186,
    "\u0ba4\u0bcd\u0ba4": 187,
    "\u0bb5\u0bc0": 188,
    "\u0bb5\u0bbf\u0bb3": 189,
    "\u0ba8\u0b9f": 190,
    "\u0baa\u0bc1": 191,
    "\u0ba8\u0bcd\u0ba4\u0bc1</w>": 192,
    "\u0bb0\u0bc1\u0ba4\u0bcd\u0ba4": 193,
    "\u0ba4\u0bcb\u0bb2\u0bcd\u0bb5\u0bbf</w>": 194,
    "\u0b9f\u0bae\u0bcd</w>": 195,
    "\u0bbe\u0bb3": 196,
    "\u0bb5\u0bae\u0bcd</w>": 197,
    "\u0bb5\u0bbf\u0b9f\u0bc1\u0ba4": 198,
    "\u0bb5\u0bbf\u0b9f\u0bc1\u0ba4\u0bb2\u0bc8</w>": 199,
    "\u0bb5\u0bc7\u0ba3\u0bcd\u0b9f": 200,
    "\u0bb5\u0bc7\u0ba3\u0bcd\u0b9f\u0bc1\u0bae\u0bcd</w>": 201,
    "\u0b9a\u0bc8</w>": 202,
    "\u0baa\u0b9f": 203,
    "\u0b95\u0bcd\u0b95\u0bc8</w>": 204,
    "\u0b95\u0b9f": 205,
    "\u0bb0\u0bbf\u0baf": 206,
    "\u0b9a\u0ba8\u0bcd\u0ba4": 207,
    "\u0bc8\u0b95\u0bcd\u0b95": 208,
    "\u0baa\u0bc2": 209,
    "\u0b95\u0bbf": 210,
    "\u0bc8\u0baa\u0bcd\u0baa": 211,
    "\u0b9a\u0bc6": 212,
    "\u0bb5\u0bb0\u0bc1\u0ba4\u0bcd\u0ba4": 213,
    "\u0bb5\u0bb0\u0bc1\u0ba4\u0bcd\u0ba4\u0bae\u0bcd</w>": 214,
    "\u0b86\u0b9a\u0bbf": 215,
    "\u0bcd\u0b9a\u0bcd\u0b9a\u0bbf</w>": 216,
    "\u0b9e\u0bb0\u0bcd</w>": 217,
    "\u0bbf\u0b95": 218,
    "\u0ba9\u0bc8</w>": 219,
    "\u0bbf\u0ba9": 220,
    "\u0b95\u0bb1\u0bcd\u0bb1": 221,
    "\u0ba9\u0bcd\u0baa\u0bae\u0bcd</w>": 222,
    "\u0b87\u0bb2": 223,
    "\u0baa\u0bbe\u0b9f\u0bcd\u0b9f\u0bc1</w>": 224,
    "\u0bae\u0bbe</w>": 225,
    "\u0bb0\u0bbf</w>": 226,
    "\u0bb5\u0bc0\u0b9f\u0bc1</w>": 227,
    "\u0baa\u0bb3\u0bcd\u0bb3": 228,
    "\u0baa\u0bc1\u0ba4\u0bcd\u0ba4": 229,
    "\u0baa\u0bc1\u0ba4\u0bcd\u0ba4\u0b95\u0bae\u0bcd</w>": 230,
    "\u0bae\u0bc7": 231,
    "\u0bb2\u0bbf</w>": 232,
    "\u0b95\u0ba4": 233,
    "\u0bb3\u0bb0": 234,
    "\u0ba8\u0bc0": 235,
    "\u0ba9\u0bcd": 236,
    "\u0bb5\u0bc8</w>": 237,
    "\u0ba4\u0bc7": 238,
    "\u0ba8\u0bae\u0bcd\u0baa": 239,
    "\u0ba8\u0bae\u0bcd\u0baa\u0bbf": 240,
    "\u0ba8\u0bae\u0bcd\u0baa\u0bbf\u0b95\u0bcd\u0b95\u0bc8</w>": 241,
    "\u0b86\u0b9a\u0bbf\u0bb0\u0bbf\u0baf": 242,
    "\u0b86\u0b9a\u0bbf\u0bb0\u0bbf\u0baf\u0bb0\u0bcd</w>": 243,
    "\u0bae\u0bbe\u0ba3": 244,
    "\u0bcd\u0bb5\u0bc1</w>": 245,
    "\u0bae\u0ba4": 246,
    "\u0bc8\u0baf\u0bbe": 247,
    "\u0bc1\u0ba4\u0bb2\u0bcd</w>": 248,
    "\u0ba4\u0bca": 249,
    "\u0b9f\u0bcd\u0b9a\u0bbf</w>": 250,
    "\u0bbe\u0bb3\u0bb0\u0bcd</w>": 251,
    "\u0bb1\u0bbf": 252,
    "\u0bbf\u0b95\u0bb0\u0bcd</w>": 253,
    "\u0b95\u0bb5\u0bbf": 254,
    "\u0bbf\u0baf\u0bae\u0bcd</w>": 255,
    "\u0bb5\u0bb0\u0bc1": 256,
    "\u0ba3\u0bbf</w>": 257,
    "\u0b85\u0ba9\u0bc1": 258,
    "\u0b85\u0ba9\u0bc1\u0baa": 259,
    "\u0b85\u0ba9\u0bc1\u0baa\u0bb5\u0bae\u0bcd</w>": 260,
    "\u0ba8\u0bcb": 261,
    "\u0ba8\u0bcb\u0b95\u0bcd\u0b95\u0bae\u0bcd</w>": 262,
    "\u0bae\u0bc1\u0baf": 263,
    "\u0bae\u0bc1\u0baf\u0bb1": 264,
    "\u0bae\u0bc1\u0baf\u0bb1\u0bcd\u0b9a\u0bbf</w>": 265,
    "\u0b8e\u0ba9\u0bcd\u0bb1\u0bc1</w>": 266,
    "\u0baa\u0bbe\u0b9f\u0bbf\u0ba9": 267,
    "\u0baa\u0bbe\u0b9f\u0bbf\u0ba9\u0bc7": 268,
    "\u0baa\u0bbe\u0b9f\u0bbf\u0ba9\u0bc7\u0ba9\u0bcd</w>": 269,
    "\u0b9f\u0bcd\u0b9f\u0bbf</w>": 270,
    "\u0b9a\u0b95\u0bcb": 271,
    "\u0b9a\u0b95\u0bcb\u0ba4": 272,
    "\u0ba8\u0ba3": 273,
    "\u0ba8\u0ba3\u0bcd\u0baa": 274,
    "\u0bb4\u0ba8\u0bcd\u0ba4": 275,
    "\u0baa\u0bb3\u0bcd\u0bb3\u0bbf</w>": 276,
    "\u0bcd\u0b95\u0bbe": 277,
    "\u0bb5\u0bbf\u0bb3\u0b95\u0bcd\u0b95\u0bc1</w>": 278,
    "\u0b9a\u0bcd\u0b9a": 279,
    "\u0b9e\u0bcd\u0b9a": 280,
    "\u0b99\u0bcd\u0b95\u0bae\u0bcd</w>": 281,
    "\u0ba4\u0bcd\u0ba4\u0bbf\u0bb0\u0bae\u0bcd</w>": 282,
    "\u0bae\u0bb4": 283,
    "\u0bb1\u0bcd\u0bb1\u0bc1</w>": 284,
    "\u0b87\u0b9f": 285,
    "\u0b9f\u0bc8</w>": 286,
    "\u0bc8\u0b95\u0bcd\u0b95\u0bbe": 287,
    "\u0bb4\u0bbf</w>": 288,
    "\u0bbf\u0bb3\u0bcd</w>": 289,
    "\u0bb4\u0bae\u0bcd</w>": 290,
    "\u0ba4\u0bbf\u0bb0": 291,
    "\u0b9a\u0bbf</w>": 292,
    "\u0bc0\u0bb0\u0bcd</w>": 293,
    "\u0ba3\u0bcd\u0b9f\u0bc1</w>": 294,
    "\u0bb1\u0bc1</w>": 295,
    "\u0bb5\u0ba3": 296,
    "\u0ba4\u0baf": 297,
    "\u0bb5\u0bc1": 298,
    "\u0b9a\u0bc6\u0baf": 299,
    "\u0b9a\u0bc6\u0baf\u0bcd\u0ba4": 300,
    "\u0b9a\u0ba8\u0bcd\u0ba4\u0bcb": 301,
    "\u0b9a\u0ba8\u0bcd\u0ba4\u0bcb\u0bb7": 302,
    "\u0b9a\u0ba8\u0bcd\u0ba4\u0bcb\u0bb7\u0bae\u0bcd</w>": 303,
    "\u0bae\u0bbe\u0ba3\u0bb5": 304,
    "\u0bae\u0bbe\u0ba3\u0bb5\u0ba9\u0bcd</w>": 305,
    "\u0baa\u0bbe\u0b9f\u0bae\u0bcd</w>": 306,
    "\u0bc1\u0baa\u0bcd\u0baa": 307,
    "\u0ba4\u0bc7\u0bb0": 308,
    "\u0ba4\u0bc7\u0bb0\u0bcd\u0bb5\u0bc1</w>": 309,
    "\u0bbf\u0baa\u0bcd\u0baa": 310,
    "\u0baa\u0bc7": 311,
    "\u0baa\u0bc7\u0ba9": 312,
    "\u0baa\u0bc7\u0ba9\u0bbe</w>": 313,
    "\u0bb5\u0bbf\u0bb3\u0bc8\u0baf\u0bbe": 314,
    "\u0bb5\u0bbf\u0bb3\u0bc8\u0baf\u0bbe\u0b9f\u0bcd\u0b9f\u0bc1</w>": 315,
    "\u0b95\u0bc8\u0baa\u0bcd\u0baa": 316,
    "\u0bae\u0b95\u0bbf": 317,
    "\u0bae\u0b95\u0bbf\u0bb4": 318,
    "\u0bae\u0b95\u0bbf\u0bb4\u0bcd\u0b9a\u0bcd\u0b9a\u0bbf</w>": 319,
    "\u0b87\u0b9a\u0bc8</w>": 320,
    "\u0b95\u0ba4\u0bc8</w>": 321,
    "\u0ba4\u0bca\u0bb2": 322,
    "\u0bb5\u0bb0\u0bcd</w>": 323,
    "\u0bbe\u0bb3\u0bbf</w>": 324,
    "\u0b8e\u0bb4": 325,
    "\u0b8e\u0bb4\u0bc1\u0ba4\u0bcd\u0ba4": 326,
    "\u0b8e\u0bb4\u0bc1\u0ba4\u0bcd\u0ba4\u0bbe\u0bb3\u0bb0\u0bcd</w>": 327,
    "\u0b95\u0bb5\u0bbf\u0b9e\u0bb0\u0bcd</w>": 328,
    "\u0ba8\u0b9f\u0bbf\u0b95\u0bb0\u0bcd</w>": 329,
    "\u0bc2\u0bb0\u0bcd</w>": 330,
    "\u0ba4\u0bbf": 331,
    "\u0ba4\u0bbf\u0bb0\u0bc1": 332,
    "\u0b9a\u0bc7": 333,
    "\u0bb0\u0bae\u0bcd</w>": 334,
    "\u0ba4\u0bae\u0bcd</w>": 335,
    "\u0b95\u0bbe\u0bb2\u0bae\u0bcd</w>": 336,
    "\u0bb5\u0bc7\u0bb2\u0bc8</w>": 337,
    "\u0baa\u0ba3\u0bbf</w>": 338,
    "\u0b89\u0bb4": 339,
    "\u0b89\u0bb4\u0bc8\u0baa": 340,
    "\u0b89\u0bb4\u0bc8\u0baa\u0bcd\u0baa\u0bc1</w>": 341,
    "\u0bb5\u0bb0\u0bc1\u0bae\u0bbe\u0ba9\u0bae\u0bcd</w>": 342,
    "\u0b95\u0b9f\u0ba9\u0bcd</w>": 343,
    "\u0ba9\u0bb5\u0bc1</w>": 344,
    "\u0b9a\u0bc1": 345,
    "\u0baf\u0bae\u0bcd</w>": 346,
    "\u0bb2\u0bbe</w>": 347,
    "\u0ba3\u0bae\u0bcd</w>": 348,
    "\u0b95\u0bb2\u0bcd\u0bb5\u0bbf</w>": 349,
    "\u0b85\u0bb1\u0bbf": 350,
    "\u0b85\u0bb1\u0bbf\u0bb5\u0bc1</w>": 351,
    "\u0baa\u0b9f\u0bbf": 352,
    "\u0baa\u0b9f\u0bbf\u0baa\u0bcd\u0baa\u0bc1</w>": 353,
    "\u0b95\u0bb1\u0bcd\u0bb1\u0bb2\u0bcd</w>": 354,
    "\u0bb5\u0bbe\u0bb4\u0bcd\u0b95\u0bcd\u0b95": 355,
    "\u0bb5\u0bbe\u0bb4\u0bcd\u0b95\u0bcd\u0b95\u0bc8</w>": 356,
    "\u0b87\u0ba9\u0bcd\u0baa\u0bae\u0bcd</w>": 357,
    "\u0ba4\u0bc1": 358,
    "\u0ba4\u0bc1\u0ba9\u0bcd\u0baa\u0bae\u0bcd</w>": 359,
    "\u0b87\u0bb2\u0b95\u0bcd\u0b95\u0bc1</w>": 360,
    "\u0b95\u0bb1\u0bcd\u0bb1\u0bc1": 361,
    "\u0b95\u0bb1\u0bcd\u0bb1\u0bc1\u0b95\u0bcd\u0b95": 362,
    "\u0b95\u0bb1\u0bcd\u0bb1\u0bc1\u0b95\u0bcd\u0b95\u0bca": 363,
    "\u0b95\u0bb1\u0bcd\u0bb1\u0bc1\u0b95\u0bcd\u0b95\u0bca\u0bb3\u0bcd\u0bb3": 364,
    "\u0b95\u0bb1\u0bcd\u0bb1\u0bc1\u0b95\u0bcd\u0b95\u0bca\u0bb3\u0bcd\u0bb3\u0bc1\u0ba4\u0bb2\u0bcd</w>": 365,
    "\u0bb5\u0bb3\u0bb0": 366,
    "\u0bb5\u0bb3\u0bb0\u0bcd\u0b9a\u0bcd\u0b9a\u0bbf</w>": 367,
    "\u0b87\u0bb2\u0b95\u0bcd\u0b95": 368,
    "\u0b95\u0bbe\u0b9f\u0bcd\u0b9a\u0bbf</w>": 369,
    "\u0baa\u0bbe\u0bb0": 370,
    "\u0bcd\u0ba4\u0bb2\u0bcd</w>": 371,
    "\u0baa\u0bb2": 372,
    "\u0b85</w>": 373,
    "\u0b86</w>": 374,
    "\u0b87</w>": 375,
    "\u0b88</w>": 376,
    "\u0b89</w>": 377,
    "\u0b8a</w>": 378,
    "\u0b8e</w>": 379,
    "\u0b8f</w>": 380,
    "\u0b90</w>": 381,
    "\u0b92</w>": 382,
    "\u0b93</w>": 383,
    "\u0b94</w>": 384,
    "\u0b85\u0bae": 385,
    "\u0b85\u0bae\u0bcd": 386,
    "\u0b85\u0bae\u0bcd\u0bae\u0bbe</w>": 387,
    "\u0b85\u0baa\u0bcd\u0baa": 388,
    "\u0b85\u0baa\u0bcd\u0baa\u0bbe</w>": 389,
    "\u0ba4\u0bbe\u0ba4\u0bcd\u0ba4": 390,
    "\u0ba4\u0bbe\u0ba4\u0bcd\u0ba4\u0bbe</w>": 391,
    "\u0baa\u0bbe\u0b9f\u0bcd\u0b9f\u0bbf</w>": 392,
    "\u0b9a\u0b95\u0bcb\u0ba4\u0bb0": 393,
    "\u0b9a\u0b95\u0bcb\u0ba4\u0bb0\u0ba9\u0bcd</w>": 394,
    "\u0b9a\u0b95\u0bcb\u0ba4\u0bb0\u0bbf</w>": 395,
    "\u0bae\u0bbe\u0bae\u0bbe</w>": 396,
    "\u0bae\u0bbe\u0bae": 397,
    "\u0bae\u0bbe\u0bae\u0bbf</w>": 398,
    "\u0ba8\u0ba3\u0bcd\u0baa\u0ba9\u0bcd</w>": 399,
    "\u0ba8\u0ba3\u0bcd\u0baa\u0bbf</w>": 400,
    "\u0b95\u0bc1\u0bb4\u0ba8\u0bcd\u0ba4": 401,
    "\u0b95\u0bc1\u0bb4\u0ba8\u0bcd\u0ba4\u0bc8</w>": 402,
    "\u0b95\u0bbe\u0bb0\u0bcd</w>": 403,
    "\u0bae\u0bc7\u0b9a\u0bc8</w>": 404,
    "\u0ba8\u0bbe\u0bb1": 405,
    "\u0ba8\u0bbe\u0bb1\u0bcd\u0b95\u0bbe": 406,
    "\u0ba8\u0bbe\u0bb1\u0bcd\u0b95\u0bbe\u0bb2\u0bbf</w>": 407,
    "\u0b95\u0ba4\u0bb5\u0bc1</w>": 408,
    "\u0b9a\u0bbe\u0bb3\u0bb0": 409,
    "\u0b9a\u0bbe\u0bb3\u0bb0\u0bae\u0bcd</w>": 410,
    "\u0baa\u0b9f\u0bc1": 411,
    "\u0baa\u0b9f\u0bc1\u0b95\u0bcd\u0b95\u0bc8</w>": 412,
    "\u0ba4\u0bb2": 413,
    "\u0ba4\u0bb2\u0bc8\u0baf": 414,
    "\u0ba4\u0bb2\u0bc8\u0baf\u0ba3\u0bc8</w>": 415,
    "\u0baa\u0bbe\u0baf\u0bcd</w>": 416,
    "\u0b9a\u0bbf\u0bb5": 417,
    "\u0b9a\u0bbf\u0bb5\u0baa\u0bcd\u0baa\u0bc1</w>": 418,
    "\u0ba8\u0bc0\u0bb2\u0bae\u0bcd</w>": 419,
    "\u0baa\u0b9a\u0bcd\u0b9a": 420,
    "\u0baa\u0b9a\u0bcd\u0b9a\u0bc8</w>": 421,
    "\u0bae\u0b9e\u0bcd\u0b9a": 422,
    "\u0bae\u0b9e\u0bcd\u0b9a\u0bb3\u0bcd</w>": 423,
    "\u0bb5\u0bc6\u0bb3\u0bcd\u0bb3": 424,
    "\u0bb5\u0bc6\u0bb3\u0bcd\u0bb3\u0bc8</w>": 425,
    "\u0b95\u0bb0\u0bc1\u0baa\u0bcd\u0baa\u0bc1</w>": 426,
    "\u0b9a\u0bbe\u0bae\u0bcd\u0baa": 427,
    "\u0b9a\u0bbe\u0bae\u0bcd\u0baa\u0bb2\u0bcd</w>": 428,
    "\u0ba4\u0b99\u0bcd\u0b95\u0bae\u0bcd</w>": 429,
    "\u0bb5\u0bbe\u0ba9\u0bae\u0bcd</w>": 430,
    "\u0b95\u0b9f\u0bb2\u0bcd</w>": 431,
    "\u0bae\u0bb2\u0bc8</w>": 432,
    "\u0b95\u0bbe\u0b9f\u0bc1</w>": 433,
    "\u0b9a\u0bc2": 434,
    "\u0b9a\u0bc2\u0bb0\u0bbf\u0baf": 435,
    "\u0b9a\u0bc2\u0bb0\u0bbf\u0baf\u0ba9\u0bcd</w>": 436,
    "\u0b9a\u0ba8\u0bcd\u0ba4\u0bbf\u0bb0": 437,
    "\u0b9a\u0ba8\u0bcd\u0ba4\u0bbf\u0bb0\u0ba9\u0bcd</w>": 438,
    "\u0ba8\u0b9f\u0bcd\u0b9a": 439,
    "\u0ba8\u0b9f\u0bcd\u0b9a\u0ba4\u0bcd\u0ba4\u0bbf\u0bb0\u0bae\u0bcd</w>": 440,
    "\u0bae\u0bc7\u0b95\u0bae\u0bcd</w>": 441,
    "\u0bae\u0bb4\u0bc8</w>": 442,
    "\u0b95\u0bbe\u0bb1\u0bcd\u0bb1\u0bc1</w>": 443,
    "\u0bae\u0bbf\u0ba9\u0bcd": 444,
    "\u0bae\u0bbf\u0ba9\u0bcd\u0ba9": 445,
    "\u0bae\u0bbf\u0ba9\u0bcd\u0ba9\u0bb2\u0bcd</w>": 446,
    "\u0b87\u0b9f\u0bbf</w>": 447,
    "\u0bb5\u0b9a\u0ba8\u0bcd\u0ba4": 448,
    "\u0bb5\u0b9a\u0ba8\u0bcd\u0ba4\u0bae\u0bcd</w>": 449,
    "\u0b95\u0bcb\u0b9f\u0bc8</w>": 450,
    "\u0bae\u0bb4\u0bc8\u0b95\u0bcd\u0b95\u0bbe": 451,
    "\u0bae\u0bb4\u0bc8\u0b95\u0bcd\u0b95\u0bbe\u0bb2\u0bae\u0bcd</w>": 452,
    "\u0b95\u0bc1\u0bb3": 453,
    "\u0b95\u0bc1\u0bb3\u0bbf\u0bb0": 454,
    "\u0b95\u0bc1\u0bb3\u0bbf\u0bb0\u0bcd\u0b95\u0bbe": 455,
    "\u0b95\u0bc1\u0bb3\u0bbf\u0bb0\u0bcd\u0b95\u0bbe\u0bb2\u0bae\u0bcd</w>": 456,
    "\u0baa\u0bc2</w>": 457,
    "\u0baa\u0bb1": 458,
    "\u0baa\u0bb1\u0bb5\u0bc8</w>": 459,
    "\u0bae\u0bc0": 460,
    "\u0bae\u0bc0\u0ba9\u0bcd</w>": 461,
    "\u0bb5\u0bbf\u0bb2": 462,
    "\u0bb5\u0bbf\u0bb2\u0b99\u0bcd\u0b95": 463,
    "\u0bb5\u0bbf\u0bb2\u0b99\u0bcd\u0b95\u0bc1</w>": 464,
    "\u0b9a\u0bc6\u0ba3": 465,
    "\u0b9a\u0bc6\u0ba3\u0bcd\u0baa": 466,
    "\u0b9a\u0bc6\u0ba3\u0bcd\u0baa\u0b95\u0bae\u0bcd</w>": 467,
    "\u0bae\u0bb2\u0bcd": 468,
    "\u0bae\u0bb2\u0bcd\u0bb2\u0bbf</w>": 469,
    "\u0bb0\u0bcb": 470,
    "\u0bb0\u0bcb\u0b9c": 471,
    "\u0bb0\u0bcb\u0b9c\u0bbe</w>": 472,
    "\u0b9a\u0bbe\u0bae": 473,
    "\u0b9a\u0bbe\u0bae\u0ba8\u0bcd\u0ba4": 474,
    "\u0b9a\u0bbe\u0bae\u0ba8\u0bcd\u0ba4\u0bbf</w>": 475,
    "\u0b95\u0bbe\u0b95\u0bae\u0bcd</w>": 476,
    "\u0b95\u0bbf\u0bb3": 477,
    "\u0b95\u0bbf\u0bb3\u0bbf</w>": 478,
    "\u0baa\u0bc1\u0bb1": 479,
    "\u0baa\u0bc1\u0bb1\u0bbe</w>": 480,
    "\u0b95\u0bcb\u0bb4\u0bbf</w>": 481,
    "\u0b86\u0baa\u0bcd\u0baa": 482,
    "\u0b86\u0baa\u0bcd\u0baa\u0bbf\u0bb3\u0bcd</w>": 483,
    "\u0bb5\u0bbe\u0bb4\u0bc8\u0baa\u0bcd\u0baa": 484,
    "\u0bb5\u0bbe\u0bb4\u0bc8\u0baa\u0bcd\u0baa\u0bb4\u0bae\u0bcd</w>": 485,
    "\u0bae\u0bbe\u0bae\u0bcd\u0baa": 486,
    "\u0bae\u0bbe\u0bae\u0bcd\u0baa\u0bb4\u0bae\u0bcd</w>": 487,
    "\u0ba4\u0bbf\u0bb0\u0bbe": 488,
    "\u0ba4\u0bbf\u0bb0\u0bbe\u0b9f": 489,
    "\u0ba4\u0bbf\u0bb0\u0bbe\u0b9f\u0bcd\u0b9a": 490,
    "\u0ba4\u0bbf\u0bb0\u0bbe\u0b9f\u0bcd\u0b9a\u0bc8</w>": 491,
    "\u0b85\u0bb0\u0bbf": 492,
    "\u0b85\u0bb0\u0bbf\u0b9a\u0bbf</w>": 493,
    "\u0ba4\u0bcb\u0b9a\u0bc8</w>": 494,
    "\u0b87\u0b9f\u0bbf\u0baf": 495,
    "\u0b87\u0b9f\u0bbf\u0baf\u0bbe\u0baa": 496,
    "\u0b87\u0b9f\u0bbf\u0baf\u0bbe\u0baa\u0bcd\u0baa\u0bae\u0bcd</w>": 497,
    "\u0baa\u0bc2\u0bb0\u0bbf</w>": 498,
    "\u0b95\u0bbe\u0baa": 499,
    "\u0b95\u0bbe\u0baa\u0bbf</w>": 500,
    "\u0ba4\u0bc7\u0ba8\u0bc0": 501,
    "\u0ba4\u0bc7\u0ba8\u0bc0\u0bb0\u0bcd</w>": 502,
    "\u0baa\u0bbe\u0bb2\u0bcd</w>": 503,
    "\u0ba4\u0ba3\u0bcd\u0ba3": 504,
    "\u0ba4\u0ba3\u0bcd\u0ba3\u0bc0\u0bb0\u0bcd</w>": 505,
    "\u0b92\u0ba9\u0bcd\u0bb1\u0bc1</w>": 506,
    "\u0b87\u0bb0\u0ba3\u0bcd\u0b9f\u0bc1</w>": 507,
    "\u0bae\u0bc2": 508,
    "\u0bae\u0bc2\u0ba9\u0bcd\u0bb1\u0bc1</w>": 509,
    "\u0ba8\u0bbe\u0ba9": 510,
    "\u0ba8\u0bbe\u0ba9\u0bcd\u0b95": 511,
    "\u0ba8\u0bbe\u0ba9\u0bcd\u0b95\u0bc1</w>": 512,
    "\u0b90\u0ba8\u0bcd\u0ba4\u0bc1</w>": 513,
    "\u0b86\u0bb1\u0bc1</w>": 514,
    "\u0b8f\u0bb4": 515,
    "\u0b8f\u0bb4\u0bc1</w>": 516,
    "\u0b8e\u0b9f\u0bcd\u0b9f\u0bc1</w>": 517,
    "\u0b92\u0ba9": 518,
    "\u0b92\u0ba9\u0bcd\u0baa": 519,
    "\u0b92\u0ba9\u0bcd\u0baa\u0ba4": 520,
    "\u0b92\u0ba9\u0bcd\u0baa\u0ba4\u0bc1</w>": 521,
    "\u0baa\u0ba4\u0bcd\u0ba4": 522,
    "\u0baa\u0ba4\u0bcd\u0ba4\u0bc1</w>": 523,
    "\u0ba8\u0bc2": 524,
    "\u0ba8\u0bc2\u0bb1\u0bc1</w>": 525,
    "\u0b86\u0baf": 526,
    "\u0b86\u0baf\u0bbf\u0bb0\u0bae\u0bcd</w>": 527,
    "\u0bb5\u0ba3\u0b95\u0bcd\u0b95\u0bae\u0bcd</w>": 528,
    "\u0ba8\u0ba9\u0bcd\u0bb1": 529,
    "\u0ba8\u0ba9\u0bcd\u0bb1\u0bbf</w>": 530,
    "\u0bae\u0ba9\u0bcd": 531,
    "\u0bae\u0ba9\u0bcd\u0ba9\u0bbf": 532,
    "\u0bae\u0ba9\u0bcd\u0ba9\u0bbf\u0b95\u0bcd\u0b95": 533,
    "\u0bae\u0ba9\u0bcd\u0ba9\u0bbf\u0b95\u0bcd\u0b95\u0bb5": 534,
    "\u0bae\u0ba9\u0bcd\u0ba9\u0bbf\u0b95\u0bcd\u0b95\u0bb5\u0bc1\u0bae\u0bcd</w>": 535,
    "\u0ba4\u0baf\u0bb5\u0bc1": 536,
    "\u0ba4\u0baf\u0bb5\u0bc1\u0b9a\u0bc6\u0baf\u0bcd\u0ba4": 537,
    "\u0ba4\u0baf\u0bb5\u0bc1\u0b9a\u0bc6\u0baf\u0bcd\u0ba4\u0bc1</w>": 538,
    "\u0baa\u0bb3\u0bcd\u0bb3\u0bbf": 539,
    "\u0baa\u0bb3\u0bcd\u0bb3\u0bbf\u0b95\u0bcd\u0b95": 540,
    "\u0baa\u0bb3\u0bcd\u0bb3\u0bbf\u0b95\u0bcd\u0b95\u0bc2": 541,
    "\u0baa\u0bb3\u0bcd\u0bb3\u0bbf\u0b95\u0bcd\u0b95\u0bc2\u0b9f\u0bae\u0bcd</w>": 542,
    "\u0bae\u0bbe\u0ba3\u0bb5\u0bbf</w>": 543,
    "\u0bb5\u0bc0\u0b9f\u0bcd\u0b9f": 544,
    "\u0bb5\u0bc0\u0b9f\u0bcd\u0b9f\u0bc1\u0baa\u0bcd\u0baa": 545,
    "\u0bb5\u0bc0\u0b9f\u0bcd\u0b9f\u0bc1\u0baa\u0bcd\u0baa\u0bbe": 546,
    "\u0bb5\u0bc0\u0b9f\u0bcd\u0b9f\u0bc1\u0baa\u0bcd\u0baa\u0bbe\u0b9f\u0bae\u0bcd</w>": 547,
    "\u0bae\u0ba4\u0bbf\u0baa\u0bcd\u0baa": 548,
    "\u0bae\u0ba4\u0bbf\u0baa\u0bcd\u0baa\u0bc6\u0ba3\u0bcd</w>": 549,
    "\u0b85\u0bb4": 550,
    "\u0b85\u0bb4\u0bbf\u0baa\u0bcd\u0baa": 551,
    "\u0b85\u0bb4\u0bbf\u0baa\u0bcd\u0baa\u0bbe": 552,
    "\u0b85\u0bb4\u0bbf\u0baa\u0bcd\u0baa\u0bbe\u0ba9\u0bcd</w>": 553,
    "\u0b95\u0bbe\u0bb2": 554,
    "\u0b95\u0bbe\u0bb2\u0bcd\u0baa": 555,
    "\u0b95\u0bbe\u0bb2\u0bcd\u0baa\u0ba8\u0bcd\u0ba4\u0bc1</w>": 556,
    "\u0b95\u0bc8\u0baa\u0bcd\u0baa\u0ba8\u0bcd\u0ba4\u0bc1</w>": 557,
    "\u0b95\u0bbf\u0bb0\u0bbf": 558,
    "\u0b95\u0bbf\u0bb0\u0bbf\u0b95\u0bcd\u0b95": 559,
    "\u0b95\u0bbf\u0bb0\u0bbf\u0b95\u0bcd\u0b95\u0bc6": 560,
    "\u0b95\u0bbf\u0bb0\u0bbf\u0b95\u0bcd\u0b95\u0bc6\u0b9f": 561,
    "\u0b95\u0bbf\u0bb0\u0bbf\u0b95\u0bcd\u0b95\u0bc6\u0b9f\u0bcd</w>": 562,
    "\u0b93\u0b9f\u0bc1\u0ba4": 563,
    "\u0b93\u0b9f\u0bc1\u0ba4\u0bb2\u0bcd</w>": 564,
    "\u0ba4\u0bbe\u0ba3\u0bcd\u0b9f": 565,
    "\u0ba4\u0bbe\u0ba3\u0bcd\u0b9f\u0bc1\u0ba4\u0bb2\u0bcd</w>": 566,
    "\u0ba8\u0bc0\u0b9a\u0bcd\u0b9a": 567,
    "\u0ba8\u0bc0\u0b9a\u0bcd\u0b9a\u0bb2\u0bcd</w>": 568,
    "\u0b9a\u0bc8\u0b95\u0bcd\u0b95": 569,
    "\u0b9a\u0bc8\u0b95\u0bcd\u0b95\u0bbf\u0bb3\u0bcd</w>": 570,
    "\u0b9a\u0bbf\u0ba9\u0bbf": 571,
    "\u0b9a\u0bbf\u0ba9\u0bbf\u0bae\u0bbe</w>": 572,
    "\u0ba8\u0b9f\u0ba9\u0bae\u0bcd</w>": 573,
    "\u0b9a\u0bc6\u0baf\u0bcd\u0ba4\u0bbf": 574,
    "\u0b9a\u0bc6\u0baf\u0bcd\u0ba4\u0bbf\u0ba4\u0bcd\u0ba4": 575,
    "\u0b9a\u0bc6\u0baf\u0bcd\u0ba4\u0bbf\u0ba4\u0bcd\u0ba4\u0bbe": 576,
    "\u0b9a\u0bc6\u0baf\u0bcd\u0ba4\u0bbf\u0ba4\u0bcd\u0ba4\u0bbe\u0bb3\u0bcd</w>": 577,
    "\u0ba4\u0bca\u0bb2\u0bc8\u0b95\u0bcd\u0b95\u0bbe": 578,
    "\u0ba4\u0bca\u0bb2\u0bc8\u0b95\u0bcd\u0b95\u0bbe\u0b9f\u0bcd\u0b9a\u0bbf</w>": 579,
    "\u0b95\u0ba3": 580,
    "\u0b95\u0ba3\u0bbf": 581,
    "\u0b95\u0ba3\u0bbf\u0ba9\u0bbf": 582,
    "\u0b95\u0ba3\u0bbf\u0ba9\u0bbf</w>": 583,
    "\u0ba4\u0bca\u0bb2\u0bc8\u0baa": 584,
    "\u0ba4\u0bca\u0bb2\u0bc8\u0baa\u0bc7": 585,
    "\u0ba4\u0bca\u0bb2\u0bc8\u0baa\u0bc7\u0b9a\u0bbf</w>": 586,
    "\u0b87\u0ba3": 587,
    "\u0b87\u0ba3\u0bc8\u0baf": 588,
    "\u0b87\u0ba3\u0bc8\u0baf\u0bae\u0bcd</w>": 589,
    "\u0bae\u0bb0\u0bc1\u0ba4\u0bcd\u0ba4": 590,
    "\u0bae\u0bb0\u0bc1\u0ba4\u0bcd\u0ba4\u0bc1": 591,
    "\u0bae\u0bb0\u0bc1\u0ba4\u0bcd\u0ba4\u0bc1\u0bb5\u0bb0\u0bcd</w>": 592,
    "\u0baa\u0bca": 593,
    "\u0baa\u0bca\u0bb1": 594,
    "\u0baa\u0bca\u0bb1\u0bbf\u0baf": 595,
    "\u0baa\u0bca\u0bb1\u0bbf\u0baf\u0bbe\u0bb3\u0bb0\u0bcd</w>": 596,
    "\u0bb5\u0bb4": 597,
    "\u0bb5\u0bb4\u0b95\u0bcd\u0b95": 598,
    "\u0bb5\u0bb4\u0b95\u0bcd\u0b95\u0bb1\u0bbf": 599,
    "\u0bb5\u0bb4\u0b95\u0bcd\u0b95\u0bb1\u0bbf\u0b9e\u0bb0\u0bcd</w>": 600,
    "\u0bb5\u0ba3\u0bbf\u0b95\u0bb0\u0bcd</w>": 601,
    "\u0b95\u0bc8": 602,
    "\u0b95\u0bc8\u0bb5\u0bbf": 603,
    "\u0b95\u0bc8\u0bb5\u0bbf\u0ba9": 604,
    "\u0b95\u0bc8\u0bb5\u0bbf\u0ba9\u0bc8": 605,
    "\u0b95\u0bc8\u0bb5\u0bbf\u0ba9\u0bc8\u0b9e\u0bb0\u0bcd</w>": 606,
    "\u0bb5\u0bc7\u0bb2": 607,
    "\u0bb5\u0bc7\u0bb2\u0bc8\u0baf\u0bbe": 608,
    "\u0bb5\u0bc7\u0bb2\u0bc8\u0baf\u0bbe\u0bb3\u0bcd</w>": 609,
    "\u0bae\u0bc1\u0ba4": 610,
    "\u0bae\u0bc1\u0ba4\u0bb2": 611,
    "\u0bae\u0bc1\u0ba4\u0bb2\u0bbe\u0bb3\u0bbf</w>": 612,
    "\u0baa\u0bbe\u0b9f\u0b95": 613,
    "\u0baa\u0bbe\u0b9f\u0b95\u0bb0\u0bcd</w>": 614,
    "\u0b9a\u0bc6\u0ba9\u0bcd": 615,
    "\u0b9a\u0bc6\u0ba9\u0bcd\u0ba9\u0bc8</w>": 616,
    "\u0bae\u0ba4\u0bc1": 617,
    "\u0bae\u0ba4\u0bc1\u0bb0": 618,
    "\u0bae\u0ba4\u0bc1\u0bb0\u0bc8</w>": 619,
    "\u0b95\u0bcb\u0baf": 620,
    "\u0b95\u0bcb\u0baf\u0bae\u0bcd\u0baa": 621,
    "\u0b95\u0bcb\u0baf\u0bae\u0bcd\u0baa\u0bc1\u0ba4\u0bcd\u0ba4": 622,
    "\u0b95\u0bcb\u0baf\u0bae\u0bcd\u0baa\u0bc1\u0ba4\u0bcd\u0ba4\u0bc2\u0bb0\u0bcd</w>": 623,
    "\u0ba4\u0bbf\u0bb0\u0bc1\u0b9a": 624,
    "\u0ba4\u0bbf\u0bb0\u0bc1\u0b9a\u0bcd\u0b9a\u0bbf</w>": 625,
    "\u0b95\u0bcb\u0bb5\u0bc8</w>": 626,
    "\u0b9a\u0bc7\u0bb2\u0bae\u0bcd</w>": 627,
    "\u0ba4\u0bbf\u0bb0\u0bc1\u0ba8": 628,
    "\u0ba4\u0bbf\u0bb0\u0bc1\u0ba8\u0bc6": 629,
    "\u0ba4\u0bbf\u0bb0\u0bc1\u0ba8\u0bc6\u0bb2\u0bcd": 630,
    "\u0ba4\u0bbf\u0bb0\u0bc1\u0ba8\u0bc6\u0bb2\u0bcd\u0bb5\u0bc7": 631,
    "\u0ba4\u0bbf\u0bb0\u0bc1\u0ba8\u0bc6\u0bb2\u0bcd\u0bb5\u0bc7\u0bb2\u0bbf</w>": 632,
    "\u0ba4\u0b9e\u0bcd\u0b9a": 633,
    "\u0ba4\u0b9e\u0bcd\u0b9a\u0bbe": 634,
    "\u0ba4\u0b9e\u0bcd\u0b9a\u0bbe\u0bb5": 635,
    "\u0ba4\u0b9e\u0bcd\u0b9a\u0bbe\u0bb5\u0bc2\u0bb0\u0bcd</w>": 636,
    "\u0b87\u0ba8\u0bcd\u0ba4": 637,
    "\u0b87\u0ba8\u0bcd\u0ba4\u0bbf\u0baf": 638,
    "\u0b87\u0ba8\u0bcd\u0ba4\u0bbf\u0baf\u0bbe</w>": 639,
    "\u0ba4\u0bae\u0bbf\u0bb4\u0bcd": 640,
    "\u0ba4\u0bae\u0bbf\u0bb4\u0bcd\u0ba8\u0bbe": 641,
    "\u0ba4\u0bae\u0bbf\u0bb4\u0bcd\u0ba8\u0bbe\u0b9f\u0bc1</w>": 642,
    "\u0b86\u0b9a\u0bbf\u0baf": 643,
    "\u0b86\u0b9a\u0bbf\u0baf\u0bbe</w>": 644,
    "\u0b89\u0bb2": 645,
    "\u0b89\u0bb2\u0b95\u0bae\u0bcd</w>": 646,
    "\u0b95\u0bbe\u0bb2\u0bc8</w>": 647,
    "\u0bae\u0ba4\u0bbf\u0baf\u0bae\u0bcd</w>": 648,
    "\u0bae\u0bbe\u0bb2\u0bc8</w>": 649,
    "\u0b87\u0bb0\u0bb5\u0bc1</w>": 650,
    "\u0ba8\u0bc7\u0bb1\u0bcd\u0bb1\u0bc1</w>": 651,
    "\u0b87\u0ba9\u0bcd\u0bb1\u0bc1</w>": 652,
    "\u0ba8\u0bbe\u0bb3": 653,
    "\u0ba8\u0bbe\u0bb3\u0bc8</w>": 654,
    "\u0bb5\u0bbe\u0bb0\u0bae\u0bcd</w>": 655,
    "\u0bae\u0bbe\u0ba4\u0bae\u0bcd</w>": 656,
    "\u0bb5\u0bb0\u0bc1\u0b9f\u0bae\u0bcd</w>": 657,
    "\u0ba8\u0bc7\u0bb0\u0bae\u0bcd</w>": 658,
    "\u0b93\u0baf": 659,
    "\u0b93\u0baf\u0bcd\u0bb5\u0bc1</w>": 660,
    "\u0b9a\u0bae\u0bcd\u0baa": 661,
    "\u0b9a\u0bae\u0bcd\u0baa\u0bb3": 662,
    "\u0b9a\u0bae\u0bcd\u0baa\u0bb3\u0bae\u0bcd</w>": 663,
    "\u0b9a\u0bc6\u0bb2": 664,
    "\u0b9a\u0bc6\u0bb2\u0bb5\u0bc1</w>": 665,
    "\u0b9a\u0bc7\u0bae\u0bbf": 666,
    "\u0b9a\u0bc7\u0bae\u0bbf\u0baa\u0bcd\u0baa\u0bc1</w>": 667,
    "\u0bb5\u0b99\u0bcd\u0b95": 668,
    "\u0bb5\u0b99\u0bcd\u0b95\u0bbf</w>": 669,
    "\u0b95\u0bca": 670,
    "\u0b95\u0bca\u0b9f": 671,
    "\u0b95\u0bca\u0b9f\u0bc1\u0baa\u0bcd\u0baa": 672,
    "\u0b95\u0bca\u0b9f\u0bc1\u0baa\u0bcd\u0baa\u0ba9\u0bb5\u0bc1</w>": 673,
    "\u0b9a\u0bae": 674,
    "\u0b9a\u0bae\u0bc8\u0baf": 675,
    "\u0b9a\u0bae\u0bc8\u0baf\u0bb2\u0bcd</w>": 676,
    "\u0b9a\u0bbe\u0baa": 677,
    "\u0b9a\u0bbe\u0baa\u0bcd\u0baa": 678,
    "\u0b9a\u0bbe\u0baa\u0bcd\u0baa\u0bbe": 679,
    "\u0b9a\u0bbe\u0baa\u0bcd\u0baa\u0bbe\u0b9f\u0bc1</w>": 680,
    "\u0b9a\u0bc1\u0bb5\u0bc8</w>": 681,
    "\u0b89\u0baa\u0bcd\u0baa\u0bc1</w>": 682,
    "\u0b95\u0bb1": 683,
    "\u0b95\u0bb1\u0bbf</w>": 684,
    "\u0b9a\u0bbe\u0ba4\u0bae\u0bcd</w>": 685,
    "\u0bb0\u0b9a\u0bae\u0bcd</w>": 686,
    "\u0ba4\u0baf\u0bbf": 687,
    "\u0ba4\u0baf\u0bbf\u0bb0\u0bcd</w>": 688,
    "\u0bae\u0bbf\u0bb3": 689,
    "\u0bae\u0bbf\u0bb3\u0b95\u0bbe": 690,
    "\u0bae\u0bbf\u0bb3\u0b95\u0bbe\u0baf\u0bcd</w>": 691,
    "\u0bb5\u0bc6\u0b99\u0bcd\u0b95": 692,
    "\u0bb5\u0bc6\u0b99\u0bcd\u0b95\u0bbe": 693,
    "\u0bb5\u0bc6\u0b99\u0bcd\u0b95\u0bbe\u0baf\u0bae\u0bcd</w>": 694,
    "\u0baa\u0bc2\u0ba3\u0bcd\u0b9f\u0bc1</w>": 695,
    "\u0bae\u0b9a\u0bbe": 696,
    "\u0bae\u0b9a\u0bbe\u0bb2\u0bbe</w>": 697,
    "\u0baa\u0baf": 698,
    "\u0baa\u0baf\u0ba3\u0bae\u0bcd</w>": 699,
    "\u0baa\u0bb8": 700,
    "\u0baa\u0bb8\u0bcd</w>": 701,
    "\u0bb0\u0baf\u0bbf\u0bb2\u0bcd</w>": 702,
    "\u0bb5\u0bbf\u0bae\u0bbe\u0ba9\u0bae\u0bcd</w>": 703,
    "\u0bb9\u0bcb": 704,
    "\u0bb9\u0bcb\u0b9f\u0bcd\u0b9f": 705,
    "\u0bb9\u0bcb\u0b9f\u0bcd\u0b9f\u0bb2\u0bcd</w>": 706,
    "\u0b9a\u0bc1\u0bb1\u0bcd\u0bb1": 707,
    "\u0b9a\u0bc1\u0bb1\u0bcd\u0bb1\u0bc1": 708,
    "\u0b9a\u0bc1\u0bb1\u0bcd\u0bb1\u0bc1\u0bb2\u0bbe</w>": 709,
    "\u0b87\u0b9f\u0bae\u0bcd</w>": 710,
    "\u0baa\u0bc1\u0b95\u0bc8\u0baa\u0bcd\u0baa": 711,
    "\u0baa\u0bc1\u0b95\u0bc8\u0baa\u0bcd\u0baa\u0b9f\u0bae\u0bcd</w>": 712,
    "\u0ba8\u0bbf\u0ba9": 713,
    "\u0ba8\u0bbf\u0ba9\u0bc8": 714,
    "\u0ba8\u0bbf\u0ba9\u0bc8\u0bb5\u0bc1</w>": 715,
    "\u0b95\u0b9f\u0bb5\u0bc1": 716,
    "\u0b95\u0b9f\u0bb5\u0bc1\u0bb3\u0bcd</w>": 717,
    "\u0baa\u0bc2\u0b9c": 718,
    "\u0baa\u0bc2\u0b9c\u0bc8</w>": 719,
    "\u0b86\u0bb2": 720,
    "\u0b86\u0bb2\u0baf\u0bae\u0bcd</w>": 721,
    "\u0baa\u0bbf\u0bb0": 722,
    "\u0baa\u0bbf\u0bb0\u0bbe": 723,
    "\u0baa\u0bbf\u0bb0\u0bbe\u0bb0": 724,
    "\u0baa\u0bbf\u0bb0\u0bbe\u0bb0\u0bcd\u0ba4": 725,
    "\u0baa\u0bbf\u0bb0\u0bbe\u0bb0\u0bcd\u0ba4\u0bcd\u0ba4": 726,
    "\u0baa\u0bbf\u0bb0\u0bbe\u0bb0\u0bcd\u0ba4\u0bcd\u0ba4\u0ba9\u0bc8</w>": 727,
    "\u0ba4\u0bc6": 728,
    "\u0ba4\u0bc6\u0baf": 729,
    "\u0ba4\u0bc6\u0baf\u0bcd": 730,
    "\u0ba4\u0bc6\u0baf\u0bcd\u0bb5\u0bae\u0bcd</w>": 731,
    "\u0baa\u0bc1\u0ba3\u0bcd\u0ba3": 732,
    "\u0baa\u0bc1\u0ba3\u0bcd\u0ba3\u0bbf\u0baf\u0bae\u0bcd</w>": 733,
    "\u0baa\u0bbe\u0bb5\u0bae\u0bcd</w>": 734,
    "\u0bae\u0bcb": 735,
    "\u0bae\u0bcb\u0b9f": 736,
    "\u0bae\u0bcb\u0b9f\u0bcd": 737,
    "\u0bae\u0bcb\u0b9f\u0bcd\u0b9a\u0bae\u0bcd</w>": 738,
    "\u0b8e\u0ba3\u0bcd\u0ba3": 739,
    "\u0b8e\u0ba3\u0bcd\u0ba3\u0bae\u0bcd</w>": 740,
    "\u0b9a\u0bbf\u0ba8\u0bcd\u0ba4": 741,
    "\u0b9a\u0bbf\u0ba8\u0bcd\u0ba4\u0ba9\u0bc8</w>": 742,
    "\u0b9e\u0bbe\u0baa": 743,
    "\u0b9e\u0bbe\u0baa\u0b95\u0bae\u0bcd</w>": 744,
    "\u0bae\u0bb1": 745,
    "\u0bae\u0bb1\u0ba4": 746,
    "\u0bae\u0bb1\u0ba4\u0bbf</w>": 747,
    "\u0b95\u0bc7": 748,
    "\u0b95\u0bc7\u0bb3\u0bcd": 749,
    "\u0b95\u0bc7\u0bb3\u0bcd\u0bb5\u0bbf</w>": 750,
    "\u0baa\u0ba4": 751,
    "\u0baa\u0ba4\u0bbf\u0bb2\u0bcd</w>": 752,
    "\u0bb5\u0bbf\u0bb3\u0b95\u0bcd\u0b95\u0bae\u0bcd</w>": 753,
    "\u0baa\u0bc1\u0bb0\u0bbf": 754,
    "\u0baa\u0bc1\u0bb0\u0bbf\u0ba4": 755,
    "\u0baa\u0bc1\u0bb0\u0bbf\u0ba4\u0bb2\u0bcd</w>": 756,
    "\u0b95\u0ba9\u0bb5\u0bc1</w>": 757,
    "\u0bae\u0bca": 758,
    "\u0bae\u0bca\u0bb4\u0bbf</w>": 759,
    "\u0b87\u0bb2\u0b95\u0bcd\u0b95\u0bbf\u0baf\u0bae\u0bcd</w>": 760,
    "\u0b95\u0bb5\u0bbf\u0ba4": 761,
    "\u0b95\u0bb5\u0bbf\u0ba4\u0bc8</w>": 762,
    "\u0b9a\u0b99\u0bcd\u0b95\u0bae\u0bcd</w>": 763,
    "\u0b9a\u0b99\u0bcd\u0b95": 764,
    "\u0b9a\u0b99\u0bcd\u0b95\u0b95\u0bbe\u0bb2\u0bae\u0bcd</w>": 765,
    "\u0baa\u0bb4\u0ba8\u0bcd\u0ba4": 766,
    "\u0baa\u0bb4\u0ba8\u0bcd\u0ba4\u0bae\u0bbf\u0bb4": 767,
    "\u0baa\u0bb4\u0ba8\u0bcd\u0ba4\u0bae\u0bbf\u0bb4\u0bcd</w>": 768,
    "\u0b87\u0bb2\u0b95\u0bcd\u0b95\u0ba3\u0bae\u0bcd</w>": 769,
    "\u0baa\u0bc1\u0bb2": 770,
    "\u0baa\u0bc1\u0bb2\u0bb5\u0bb0\u0bcd</w>": 771,
    "\u0baa\u0b9f\u0bc8\u0baa\u0bcd\u0baa": 772,
    "\u0baa\u0b9f\u0bc8\u0baa\u0bcd\u0baa\u0bbe\u0bb3\u0bbf</w>": 773,
    "\u0ba8\u0bbe\u0b9f": 774,
    "\u0ba8\u0bbe\u0b9f\u0b95\u0bae\u0bcd</w>": 775,
    "\u0ba8\u0b9f\u0bbf\u0b95": 776,
    "\u0ba8\u0b9f\u0bbf\u0b95\u0bc8</w>": 777,
    "\u0b95\u0ba4\u0bbe": 778,
    "\u0b95\u0ba4\u0bbe\u0baa\u0bbe": 779,
    "\u0b95\u0ba4\u0bbe\u0baa\u0bbe\u0ba4\u0bcd\u0ba4\u0bbf\u0bb0\u0bae\u0bcd</w>": 780,
    "\u0bae\u0bc7\u0b9f\u0bc8</w>": 781,
    "\u0ba4\u0bbf\u0bb0\u0bc8</w>": 782,
    "\u0baa\u0bbe\u0b9f\u0bb2\u0bcd</w>": 783,
    "\u0bb5\u0bc0\u0bb0": 784,
    "\u0bb5\u0bc0\u0bb0\u0bb0\u0bcd</w>": 785,
    "\u0baa\u0ba8\u0bcd\u0ba4\u0bc1</w>": 786,
    "\u0b95\u0bcb\u0bb2\u0bcd</w>": 787,
    "\u0b85\u0ba3\u0bbf</w>": 788,
    "\u0baa\u0bcb": 789,
    "\u0baa\u0bcb\u0b9f\u0bcd\u0b9f\u0bbf</w>": 790,
    "\u0baa\u0bb0\u0bbf\u0b9a\u0bc1</w>": 791,
    "\u0baa\u0bbe\u0bb0\u0bbe": 792,
    "\u0baa\u0bbe\u0bb0\u0bbe\u0b9f\u0bcd\u0b9f\u0bc1</w>": 793,
    "\u0b95\u0bc1\u0b9f": 794,
    "\u0b95\u0bc1\u0b9f\u0bc1\u0bae": 795,
    "\u0b95\u0bc1\u0b9f\u0bc1\u0bae\u0bcd\u0baa\u0bae\u0bcd</w>": 796,
    "\u0b9a\u0bbf\u0bb0\u0bbf": 797,
    "\u0b9a\u0bbf\u0bb0\u0bbf\u0baa\u0bcd\u0baa\u0bc1</w>": 798,
    "\u0b95\u0ba3\u0bcd\u0ba3\u0bc0\u0bb0\u0bcd</w>": 799,
    "\u0b92\u0ba9\u0bcd\u0bb1": 800,
    "\u0b92\u0ba9\u0bcd\u0bb1\u0bbf": 801,
    "\u0b92\u0ba9\u0bcd\u0bb1\u0bbf\u0ba3": 802,
    "\u0b92\u0ba9\u0bcd\u0bb1\u0bbf\u0ba3\u0bc8": 803,
    "\u0b92\u0ba9\u0bcd\u0bb1\u0bbf\u0ba3\u0bc8\u0ba8\u0bcd\u0ba4\u0bc1</w>": 804,
    "\u0bb5\u0bbe\u0bb4\u0bcd\u0ba4\u0bb2\u0bcd</w>": 805,
    "\u0baa\u0b95": 806,
    "\u0baa\u0b95\u0bbf\u0bb0": 807,
    "\u0baa\u0b95\u0bbf\u0bb0\u0bcd\u0ba4\u0bb2\u0bcd</w>": 808,
    "\u0ba4\u0bca\u0bb4": 809,
    "\u0ba4\u0bca\u0bb4\u0bbf\u0bb2\u0bcd</w>": 810,
    "\u0baa\u0bb2\u0ba9\u0bcd</w>": 811,
    "\u0b9a\u0bbe\u0ba4": 812,
    "\u0b9a\u0bbe\u0ba4\u0ba9\u0bc8</w>": 813,
    "\u0b95\u0bb2\u0bcd": 814,
    "\u0b95\u0bb2\u0bcd\u0bb2": 815,
    "\u0b95\u0bb2\u0bcd\u0bb2\u0bc2": 816,
    "\u0b95\u0bb2\u0bcd\u0bb2\u0bc2\u0bb0\u0bbf</w>": 817,
    "\u0baa\u0bb2\u0bcd\u0b95": 818,
    "\u0baa\u0bb2\u0bcd\u0b95\u0bb2": 819,
    "\u0baa\u0bb2\u0bcd\u0b95\u0bb2\u0bc8\u0b95\u0bcd\u0b95": 820,
    "\u0baa\u0bb2\u0bcd\u0b95\u0bb2\u0bc8\u0b95\u0bcd\u0b95\u0bb4": 821,
    "\u0baa\u0bb2\u0bcd\u0b95\u0bb2\u0bc8\u0b95\u0bcd\u0b95\u0bb4\u0b95\u0bae\u0bcd</w>": 822,
    "\u0baa\u0b9f\u0bcd\u0b9f": 823,
    "\u0baa\u0b9f\u0bcd\u0b9f\u0bae\u0bcd</w>": 824,
    "\u0baa\u0bbe\u0bb0\u0ba4": 825,
    "\u0baa\u0bbe\u0bb0\u0ba4\u0bbf\u0baf": 826,
    "\u0baa\u0bbe\u0bb0\u0ba4\u0bbf\u0baf\u0bbe": 827,
    "\u0baa\u0bbe\u0bb0\u0ba4\u0bbf\u0baf\u0bbe\u0bb0\u0bcd</w>": 828,
    "\u0baa\u0bbe\u0b9f\u0bb2": 829,
    "\u0baa\u0bbe\u0b9f\u0bb2\u0bcd\u0b95": 830,
    "\u0baa\u0bbe\u0b9f\u0bb2\u0bcd\u0b95\u0bb3\u0bcd</w>": 831
  },
  "inverse_vocab": {
    "0": " ",
    "1": "</w>",
    "2": "\u0b85",
    "3": "\u0b86",
    "4": "\u0b87",
    "5": "\u0b88",
    "6": "\u0b89",
    "7": "\u0b8a",
    "8": "\u0b8e",
    "9": "\u0b8f",
    "10": "\u0b90",
    "11": "\u0b92",
    "12": "\u0b93",
    "13": "\u0b94",
    "14": "\u0b95",
    "15": "\u0b99",
    "16": "\u0b9a",
    "17": "\u0b9c",
    "18": "\u0b9e",
    "19": "\u0b9f",
    "20": "\u0ba3",
    "21": "\u0ba4",
    "22": "\u0ba8",
    "23": "\u0ba9",
    "24": "\u0baa",
    "25": "\u0bae",
    "26": "\u0baf",
    "27": "\u0bb0",
    "28": "\u0bb1",
    "29": "\u0bb2",
    "30": "\u0bb3",
    "31": "\u0bb4",
    "32": "\u0bb5",
    "33": "\u0bb7",
    "34": "\u0bb8",
    "35": "\u0bb9",
    "36": "\u0bbe",
    "37": "\u0bbf",
    "38": "\u0bc0",
    "39": "\u0bc1",
    "40": "\u0bc2",
    "41": "\u0bc6",
    "42": "\u0bc7",
    "43": "\u0bc8",
    "44": "\u0bca",
    "45": "\u0bcb",
    "46": "\u0bcd",
    "47": " </w>",
    "48": "\u0bcd</w>",
    "49": "\u0ba9\u0bbf",
    "50": "\u0bae\u0ba9\u0bbf",
    "51": "\u0bae\u0ba9\u0bbf\u0ba4",
    "52": "\u0bae\u0ba9\u0bbf\u0ba4\u0ba9",
    "53": "\u0bc1</w>",
    "54": "\u0bcd\u0b95",
    "55": "\u0b95\u0bcd\u0b95",
    "56": "\u0bae\u0bcd</w>",
    "57": "\u0b95\u0bcd\u0b95\u0bc1</w>",
    "58": "\u0bae\u0ba9\u0bbf\u0ba4\u0ba9\u0bcd</w>",
    "59": "\u0bae\u0ba9\u0bbf\u0ba4\u0ba9\u0bc1",
    "60": "\u0bae\u0ba9\u0bbf\u0ba4\u0ba9\u0bc1\u0b95\u0bcd\u0b95\u0bc1</w>",
    "61": "\u0bbf</w>",
    "62": "\u0bc8</w>",
    "63": "\u0bcd\u0baa",
    "64": "\u0bc1\u0ba4",
    "65": "\u0b85\u0ba9",
    "66": "\u0b9a\u0bae\u0bcd</w>",
    "67": "\u0baa\u0bbe",
    "68": "\u0bcd\u0ba4",
    "69": "\u0bb2\u0bcd</w>",
    "70": "\u0bbe\u0baa",
    "71": "\u0bcd\u0baa\u0bc1</w>",
    "72": "\u0bb5\u0bc1</w>",
    "73": "\u0ba9\u0bcd</w>",
    "74": "\u0bb0\u0bbf",
    "75": "\u0bb5\u0bbf</w>",
    "76": "\u0bb0\u0bc1",
    "77": "\u0bcd\u0b9f",
    "78": "\u0b95\u0bcd\u0b95\u0bae\u0bcd</w>",
    "79": "\u0b85\u0ba9\u0bcd\u0baa\u0bc1</w>",
    "80": "\u0ba3\u0bc8</w>",
    "81": "\u0b95\u0bb0\u0bc1",
    "82": "\u0b87\u0bb0",
    "83": "\u0ba8\u0bc7",
    "84": "\u0bb0\u0bcd</w>",
    "85": "\u0b95\u0bb0\u0bc1\u0ba3\u0bc8</w>",
    "86": "\u0baa\u0bb0\u0bbf",
    "87": "\u0baa\u0bbe\u0b9a\u0bae\u0bcd</w>",
    "88": "\u0ba8\u0bc7\u0b9a\u0bae\u0bcd</w>",
    "89": "\u0b89\u0ba4",
    "90": "\u0b89\u0ba4\u0bb5\u0bbf</w>",
    "91": "\u0b87\u0bb0\u0b95\u0bcd\u0b95\u0bae\u0bcd</w>",
    "92": "\u0baa\u0bb0\u0bbf\u0bb5\u0bc1</w>",
    "93": "\u0b85\u0ba9\u0bc1\u0ba4",
    "94": "\u0b85\u0ba9\u0bc1\u0ba4\u0bbe\u0baa",
    "95": "\u0b85\u0ba9\u0bc1\u0ba4\u0bbe\u0baa\u0bae\u0bcd</w>",
    "96": "\u0bae\u0bbe",
    "97": "\u0ba8\u0bcd\u0ba4",
    "98": "\u0bb5\u0bbe",
    "99": "\u0b9f\u0bcd\u0b9f",
    "100": "\u0bcd\u0b9a",
    "101": "\u0bcd\u0bb1",
    "102": "\u0bb5\u0bbe\u0bb4",
    "103": "\u0bbf\u0bb2\u0bcd</w>",
    "104": "\u0bae\u0bc1",
    "105": "\u0ba3\u0bcd",
    "106": "\u0ba3\u0bcd\u0ba3",
    "107": "\u0bb5\u0bbe\u0bb4\u0bcd\u0b95",
    "108": "\u0bbf\u0bb0",
    "109": "\u0b9a\u0bc1</w>",
    "110": "\u0bb5\u0bbf",
    "111": "\u0bae\u0bc1\u0bb0",
    "112": "\u0bae\u0bc1\u0bb0\u0b9a\u0bc1</w>",
    "113": "\u0bb5\u0bbe\u0bb4\u0bcd\u0b95</w>",
    "114": "\u0bb3\u0bcd</w>",
    "115": "\u0bc8\u0baa",
    "116": "\u0b95\u0ba3\u0bcd\u0ba3",
    "117": "\u0b99\u0bcd\u0b95",
    "118": "\u0ba9\u0bae\u0bcd</w>",
    "119": "\u0bae\u0bbf",
    "120": "\u0baa\u0bbe\u0b9f",
    "121": "\u0b95\u0ba3\u0bcd\u0ba3\u0ba9\u0bcd</w>",
    "122": "\u0ba8\u0bbe",
    "123": "\u0bb1\u0bcd\u0bb1",
    "124": "\u0bc1\u0bae\u0bcd</w>",
    "125": "\u0bae\u0bbe\u0ba9\u0bae\u0bcd</w>",
    "126": "\u0ba4\u0bbe",
    "127": "\u0b95\u0bc1",
    "128": "\u0bc6\u0ba3",
    "129": "\u0b95\u0bbe",
    "130": "\u0baa\u0bc1\u0ba4",
    "131": "\u0bbf\u0bb0\u0bae\u0bcd</w>",
    "132": "\u0bcd\u0b9a\u0bbf</w>",
    "133": "\u0bae\u0bbf\u0bb4",
    "134": "\u0bbe</w>",
    "135": "\u0bc6\u0ba3\u0bcd</w>",
    "136": "\u0b95\u0bae\u0bcd</w>",
    "137": "\u0baf\u0bcd</w>",
    "138": "\u0bb2\u0bc8</w>",
    "139": "\u0bb2\u0bcd",
    "140": "\u0ba4\u0bae\u0bbf\u0bb4",
    "141": "\u0baa\u0bc6\u0ba3\u0bcd</w>",
    "142": "\u0bb5\u0bc7",
    "143": "\u0baf\u0bbf\u0bb2\u0bcd</w>",
    "144": "\u0bae\u0ba9\u0bbf\u0ba4\u0bbe\u0baa",
    "145": "\u0bae\u0ba9\u0bbf\u0ba4\u0bbe\u0baa\u0bbf",
    "146": "\u0bae\u0ba9\u0bbf\u0ba4\u0bbe\u0baa\u0bbf\u0bae\u0bbe\u0ba9\u0bae\u0bcd</w>",
    "147": "\u0ba4\u0bae\u0bbf\u0bb4\u0bcd</w>",
    "148": "\u0bc1\u0bae",
    "149": "\u0b9a\u0bbf",
    "150": "\u0bb5\u0bc6",
    "151": "\u0ba9\u0bcd\u0bb1",
    "152": "\u0ba3\u0bcd\u0b9f",
    "153": "\u0b9f\u0bcd\u0b9f\u0bc1</w>",
    "154": "\u0bc1\u0ba4\u0bcd\u0ba4",
    "155": "\u0b95\u0bc1\u0baf\u0bbf\u0bb2\u0bcd</w>",
    "156": "\u0baa\u0bc1\u0ba4\u0bc1\u0bae",
    "157": "\u0baa\u0bc1\u0ba4\u0bc1\u0bae\u0bc8\u0baa",
    "158": "\u0baa\u0bc1\u0ba4\u0bc1\u0bae\u0bc8\u0baa\u0bcd</w>",
    "159": "\u0ba8\u0bbe\u0b9f\u0bcd\u0b9f",
    "160": "\u0ba8\u0bbe\u0b9f\u0bcd\u0b9f\u0bbf\u0bb2\u0bcd</w>",
    "161": "\u0b9a\u0bc1\u0ba4",
    "162": "\u0b9a\u0bc1\u0ba4\u0ba8\u0bcd\u0ba4",
    "163": "\u0b9a\u0bc1\u0ba4\u0ba8\u0bcd\u0ba4\u0bbf\u0bb0\u0bae\u0bcd</w>",
    "164": "\u0b8e\u0b99\u0bcd\u0b95",
    "165": "\u0b8e\u0b99\u0bcd\u0b95\u0bb3\u0bcd</w>",
    "166": "\u0ba4\u0bbe\u0baf\u0bcd</w>",
    "167": "\u0b95\u0bcb",
    "168": "\u0bb3\u0bcd",
    "169": "\u0baa\u0bcd\u0baa\u0bc1</w>",
    "170": "\u0bae\u0bcd\u0baa",
    "171": "\u0bbf\u0baf",
    "172": "\u0bb2\u0bcd\u0bb5\u0bbf</w>",
    "173": "\u0baa\u0bcd\u0baa",
    "174": "\u0b9f\u0bc1</w>",
    "175": "\u0bb3\u0bcd\u0bb3",
    "176": "\u0b9a\u0bbe",
    "177": "\u0bc8\u0baf",
    "178": "\u0bb2\u0bae\u0bcd</w>",
    "179": "\u0ba4\u0bcb",
    "180": "\u0bcd\u0baa\u0bae\u0bcd</w>",
    "181": "\u0ba9\u0bcd\u0bb1\u0bc1</w>",
    "182": "\u0bb5\u0bc6\u0bb1\u0bcd\u0bb1",
    "183": "\u0bb5\u0bc6\u0bb1\u0bcd\u0bb1\u0bbf</w>",
    "184": "\u0b9f\u0bc1\u0ba4",
    "185": "\u0b8e\u0ba9\u0bcd</w>",
    "186": "\u0baa\u0bbe\u0b9f\u0bc1\u0bae\u0bcd</w>",
    "187": "\u0ba4\u0bcd\u0ba4",
    "188": "\u0bb5\u0bc0",
    "189": "\u0bb5\u0bbf\u0bb3",
    "190": "\u0ba8\u0b9f",
    "191": "\u0baa\u0bc1",
    "192": "\u0ba8\u0bcd\u0ba4\u0bc1</w>",
    "193": "\u0bb0\u0bc1\u0ba4\u0bcd\u0ba4",
    "194": "\u0ba4\u0bcb\u0bb2\u0bcd\u0bb5\u0bbf</w>",
    "195": "\u0b9f\u0bae\u0bcd</w>",
    "196": "\u0bbe\u0bb3",
    "197": "\u0bb5\u0bae\u0bcd</w>",
    "198": "\u0bb5\u0bbf\u0b9f\u0bc1\u0ba4",
    "199": "\u0bb5\u0bbf\u0b9f\u0bc1\u0ba4\u0bb2\u0bc8</w>",
    "200": "\u0bb5\u0bc7\u0ba3\u0bcd\u0b9f",
    "201": "\u0bb5\u0bc7\u0ba3\u0bcd\u0b9f\u0bc1\u0bae\u0bcd</w>",
    "202": "\u0b9a\u0bc8</w>",
    "203": "\u0baa\u0b9f",
    "204": "\u0b95\u0bcd\u0b95\u0bc8</w>",
    "205": "\u0b95\u0b9f",
    "206": "\u0bb0\u0bbf\u0baf",
    "207": "\u0b9a\u0ba8\u0bcd\u0ba4",
    "208": "\u0bc8\u0b95\u0bcd\u0b95",
    "209": "\u0baa\u0bc2",
    "210": "\u0b95\u0bbf",
    "211": "\u0bc8\u0baa\u0bcd\u0baa",
    "212": "\u0b9a\u0bc6",
    "213": "\u0bb5\u0bb0\u0bc1\u0ba4\u0bcd\u0ba4",
    "214": "\u0bb5\u0bb0\u0bc1\u0ba4\u0bcd\u0ba4\u0bae\u0bcd</w>",
    "215": "\u0b86\u0b9a\u0bbf",
    "216": "\u0bcd\u0b9a\u0bcd\u0b9a\u0bbf</w>",
    "217": "\u0b9e\u0bb0\u0bcd</w>",
    "218": "\u0bbf\u0b95",
    "219": "\u0ba9\u0bc8</w>",
    "220": "\u0bbf\u0ba9",
    "221": "\u0b95\u0bb1\u0bcd\u0bb1",
    "222": "\u0ba9\u0bcd\u0baa\u0bae\u0bcd</w>",
    "223": "\u0b87\u0bb2",
    "224": "\u0baa\u0bbe\u0b9f\u0bcd\u0b9f\u0bc1</w>",
    "225": "\u0bae\u0bbe</w>",
    "226": "\u0bb0\u0bbf</w>",
    "227": "\u0bb5\u0bc0\u0b9f\u0bc1</w>",
    "228": "\u0baa\u0bb3\u0bcd\u0bb3",
    "229": "\u0baa\u0bc1\u0ba4\u0bcd\u0ba4",
    "230": "\u0baa\u0bc1\u0ba4\u0bcd\u0ba4\u0b95\u0bae\u0bcd</w>",
    "231": "\u0bae\u0bc7",
    "232": "\u0bb2\u0bbf</w>",
    "233": "\u0b95\u0ba4",
    "234": "\u0bb3\u0bb0",
    "235": "\u0ba8\u0bc0",
    "236": "\u0ba9\u0bcd",
    "237": "\u0bb5\u0bc8</w>",
    "238": "\u0ba4\u0bc7",
    "239": "\u0ba8\u0bae\u0bcd\u0baa",
    "240": "\u0ba8\u0bae\u0bcd\u0baa\u0bbf",
    "241": "\u0ba8\u0bae\u0bcd\u0baa\u0bbf\u0b95\u0bcd\u0b95\u0bc8</w>",
    "242": "\u0b86\u0b9a\u0bbf\u0bb0\u0bbf\u0baf",
    "243": "\u0b86\u0b9a\u0bbf\u0bb0\u0bbf\u0baf\u0bb0\u0bcd</w>",
    "244": "\u0bae\u0bbe\u0ba3",
    "245": "\u0bcd\u0bb5\u0bc1</w>",
    "246": "\u0bae\u0ba4",
    "247": "\u0bc8\u0baf\u0bbe",
    "248": "\u0bc1\u0ba4\u0bb2\u0bcd</w>",
    "249": "\u0ba4\u0bca",
    "250": "\u0b9f\u0bcd\u0b9a\u0bbf</w>",
    "251": "\u0bbe\u0bb3\u0bb0\u0bcd</w>",
    "252": "\u0bb1\u0bbf",
    "253": "\u0bbf\u0b95\u0bb0\u0bcd</w>",
    "254": "\u0b95\u0bb5\u0bbf",
    "255": "\u0bbf\u0baf\u0bae\u0bcd</w>",
    "256": "\u0bb5\u0bb0\u0bc1",
    "257": "\u0ba3\u0bbf</w>",
    "258": "\u0b85\u0ba9\u0bc1",
    "259": "\u0b85\u0ba9\u0bc1\u0baa",
    "260": "\u0b85\u0ba9\u0bc1\u0baa\u0bb5\u0bae\u0bcd</w>",
    "261": "\u0ba8\u0bcb",
    "262": "\u0ba8\u0bcb\u0b95\u0bcd\u0b95\u0bae\u0bcd</w>",
    "263": "\u0bae\u0bc1\u0baf",
    "264": "\u0bae\u0bc1\u0baf\u0bb1",
    "265": "\u0bae\u0bc1\u0baf\u0bb1\u0bcd\u0b9a\u0bbf</w>",
    "266": "\u0b8e\u0ba9\u0bcd\u0bb1\u0bc1</w>",
    "267": "\u0baa\u0bbe\u0b9f\u0bbf\u0ba9",
    "268": "\u0baa\u0bbe\u0b9f\u0bbf\u0ba9\u0bc7",
    "269": "\u0baa\u0bbe\u0b9f\u0bbf\u0ba9\u0bc7\u0ba9\u0bcd</w>",
    "270": "\u0b9f\u0bcd\u0b9f\u0bbf</w>",
    "271": "\u0b9a\u0b95\u0bcb",
    "272": "\u0b9a\u0b95\u0bcb\u0ba4",
    "273": "\u0ba8\u0ba3",
    "274": "\u0ba8\u0ba3\u0bcd\u0baa",
    "275": "\u0bb4\u0ba8\u0bcd\u0ba4",
    "276": "\u0baa\u0bb3\u0bcd\u0bb3\u0bbf</w>",
    "277": "\u0bcd\u0b95\u0bbe",
    "278": "\u0bb5\u0bbf\u0bb3\u0b95\u0bcd\u0b95\u0bc1</w>",
    "279": "\u0b9a\u0bcd\u0b9a",
    "280": "\u0b9e\u0bcd\u0b9a",
    "281": "\u0b99\u0bcd\u0b95\u0bae\u0bcd</w>",
    "282": "\u0ba4\u0bcd\u0ba4\u0bbf\u0bb0\u0bae\u0bcd</w>",
    "283": "\u0bae\u0bb4",
    "284": "\u0bb1\u0bcd\u0bb1\u0bc1</w>",
    "285": "\u0b87\u0b9f",
    "286": "\u0b9f\u0bc8</w>",
    "287": "\u0bc8\u0b95\u0bcd\u0b95\u0bbe",
    "288": "\u0bb4\u0bbf</w>",
    "289": "\u0bbf\u0bb3\u0bcd</w>",
    "290": "\u0bb4\u0bae\u0bcd</w>",
    "291": "\u0ba4\u0bbf\u0bb0",
    "292": "\u0b9a\u0bbf</w>",
    "293": "\u0bc0\u0bb0\u0bcd</w>",
    "294": "\u0ba3\u0bcd\u0b9f\u0bc1</w>",
    "295": "\u0bb1\u0bc1</w>",
    "296": "\u0bb5\u0ba3",
    "297": "\u0ba4\u0baf",
    "298": "\u0bb5\u0bc1",
    "299": "\u0b9a\u0bc6\u0baf",
    "300": "\u0b9a\u0bc6\u0baf\u0bcd\u0ba4",
    "301": "\u0b9a\u0ba8\u0bcd\u0ba4\u0bcb",
    "302": "\u0b9a\u0ba8\u0bcd\u0ba4\u0bcb\u0bb7",
    "303": "\u0b9a\u0ba8\u0bcd\u0ba4\u0bcb\u0bb7\u0bae\u0bcd</w>",
    "304": "\u0bae\u0bbe\u0ba3\u0bb5",
    "305": "\u0bae\u0bbe\u0ba3\u0bb5\u0ba9\u0bcd</w>",
    "306": "\u0baa\u0bbe\u0b9f\u0bae\u0bcd</w>",
    "307": "\u0bc1\u0baa\u0bcd\u0baa",
    "308": "\u0ba4\u0bc7\u0bb0",
    "309": "\u0ba4\u0bc7\u0bb0\u0bcd\u0bb5\u0bc1</w>",
    "310": "\u0bbf\u0baa\u0bcd\u0baa",
    "311": "\u0baa\u0bc7",
    "312": "\u0baa\u0bc7\u0ba9",
    "313": "\u0baa\u0bc7\u0ba9\u0bbe</w>",
    "314": "\u0bb5\u0bbf\u0bb3\u0bc8\u0baf\u0bbe",
    "315": "\u0bb5\u0bbf\u0bb3\u0bc8\u0baf\u0bbe\u0b9f\u0bcd\u0b9f\u0bc1</w>",
    "316": "\u0b95\u0bc8\u0baa\u0bcd\u0baa",
    "317": "\u0bae\u0b95\u0bbf",
    "318": "\u0bae\u0b95\u0bbf\u0bb4",
    "319": "\u0bae\u0b95\u0bbf\u0bb4\u0bcd\u0b9a\u0bcd\u0b9a\u0bbf</w>",
    "320": "\u0b87\u0b9a\u0bc8</w>",
    "321": "\u0b95\u0ba4\u0bc8</w>",
    "322": "\u0ba4\u0bca\u0bb2",
    "323": "\u0bb5\u0bb0\u0bcd</w>",
    "324": "\u0bbe\u0bb3\u0bbf</w>",
    "325": "\u0b8e\u0bb4",
    "326": "\u0b8e\u0bb4\u0bc1\u0ba4\u0bcd\u0ba4",
    "327": "\u0b8e\u0bb4\u0bc1\u0ba4\u0bcd\u0ba4\u0bbe\u0bb3\u0bb0\u0bcd</w>",
    "328": "\u0b95\u0bb5\u0bbf\u0b9e\u0bb0\u0bcd</w>",
    "329": "\u0ba8\u0b9f\u0bbf\u0b95\u0bb0\u0bcd</w>",
    "330": "\u0bc2\u0bb0\u0bcd</w>",
    "331": "\u0ba4\u0bbf",
    "332": "\u0ba4\u0bbf\u0bb0\u0bc1",
    "333": "\u0b9a\u0bc7",
    "334": "\u0bb0\u0bae\u0bcd</w>",
    "335": "\u0ba4\u0bae\u0bcd</w>",
    "336": "\u0b95\u0bbe\u0bb2\u0bae\u0bcd</w>",
    "337": "\u0bb5\u0bc7\u0bb2\u0bc8</w>",
    "338": "\u0baa\u0ba3\u0bbf</w>",
    "339": "\u0b89\u0bb4",
    "340": "\u0b89\u0bb4\u0bc8\u0baa",
    "341": "\u0b89\u0bb4\u0bc8\u0baa\u0bcd\u0baa\u0bc1</w>",
    "342": "\u0bb5\u0bb0\u0bc1\u0bae\u0bbe\u0ba9\u0bae\u0bcd</w>",
    "343": "\u0b95\u0b9f\u0ba9\u0bcd</w>",
    "344": "\u0ba9\u0bb5\u0bc1</w>",
    "345": "\u0b9a\u0bc1",
    "346": "\u0baf\u0bae\u0bcd</w>",
    "347": "\u0bb2\u0bbe</w>",
    "348": "\u0ba3\u0bae\u0bcd</w>",
    "349": "\u0b95\u0bb2\u0bcd\u0bb5\u0bbf</w>",
    "350": "\u0b85\u0bb1\u0bbf",
    "351": "\u0b85\u0bb1\u0bbf\u0bb5\u0bc1</w>",
    "352": "\u0baa\u0b9f\u0bbf",
    "353": "\u0baa\u0b9f\u0bbf\u0baa\u0bcd\u0baa\u0bc1</w>",
    "354": "\u0b95\u0bb1\u0bcd\u0bb1\u0bb2\u0bcd</w>",
    "355": "\u0bb5\u0bbe\u0bb4\u0bcd\u0b95\u0bcd\u0b95",
    "356": "\u0bb5\u0bbe\u0bb4\u0bcd\u0b95\u0bcd\u0b95\u0bc8</w>",
    "357": "\u0b87\u0ba9\u0bcd\u0baa\u0bae\u0bcd</w>",
    "358": "\u0ba4\u0bc1",
    "359": "\u0ba4\u0bc1\u0ba9\u0bcd\u0baa\u0bae\u0bcd</w>",
    "360": "\u0b87\u0bb2\u0b95\u0bcd\u0b95\u0bc1</w>",
    "361": "\u0b95\u0bb1\u0bcd\u0bb1\u0bc1",
    "362": "\u0b95\u0bb1\u0bcd\u0bb1\u0bc1\u0b95\u0bcd\u0b95",
    "363": "\u0b95\u0bb1\u0bcd\u0bb1\u0bc1\u0b95\u0bcd\u0b95\u0bca",
    "364": "\u0b95\u0bb1\u0bcd\u0bb1\u0bc1\u0b95\u0bcd\u0b95\u0bca\u0bb3\u0bcd\u0bb3",
    "365": "\u0b95\u0bb1\u0bcd\u0bb1\u0bc1\u0b95\u0bcd\u0b95\u0bca\u0bb3\u0bcd\u0bb3\u0bc1\u0ba4\u0bb2\u0bcd</w>",
    "366": "\u0bb5\u0bb3\u0bb0",
    "367": "\u0bb5\u0bb3\u0bb0\u0bcd\u0b9a\u0bcd\u0b9a\u0bbf</w>",
    "368": "\u0b87\u0bb2\u0b95\u0bcd\u0b95",
    "369": "\u0b95\u0bbe\u0b9f\u0bcd\u0b9a\u0bbf</w>",
    "370": "\u0baa\u0bbe\u0bb0",
    "371": "\u0bcd\u0ba4\u0bb2\u0bcd</w>",
    "372": "\u0baa\u0bb2",
    "373": "\u0b85</w>",
    "374": "\u0b86</w>",
    "375": "\u0b87</w>",
    "376": "\u0b88</w>",
    "377": "\u0b89</w>",
    "378": "\u0b8a</w>",
    "379": "\u0b8e</w>",
    "380": "\u0b8f</w>",
    "381": "\u0b90</w>",
    "382": "\u0b92</w>",
    "383": "\u0b93</w>",
    "384": "\u0b94</w>",
    "385": "\u0b85\u0bae",
    "386": "\u0b85\u0bae\u0bcd",
    "387": "\u0b85\u0bae\u0bcd\u0bae\u0bbe</w>",
    "388": "\u0b85\u0baa\u0bcd\u0baa",
    "389": "\u0b85\u0baa\u0bcd\u0baa\u0bbe</w>",
    "390": "\u0ba4\u0bbe\u0ba4\u0bcd\u0ba4",
    "391": "\u0ba4\u0bbe\u0ba4\u0bcd\u0ba4\u0bbe</w>",
    "392": "\u0baa\u0bbe\u0b9f\u0bcd\u0b9f\u0bbf</w>",
    "393": "\u0b9a\u0b95\u0bcb\u0ba4\u0bb0",
    "394": "\u0b9a\u0b95\u0bcb\u0ba4\u0bb0\u0ba9\u0bcd</w>",
    "395": "\u0b9a\u0b95\u0bcb\u0ba4\u0bb0\u0bbf</w>",
    "396": "\u0bae\u0bbe\u0bae\u0bbe</w>",
    "397": "\u0bae\u0bbe\u0bae",
    "398": "\u0bae\u0bbe\u0bae\u0bbf</w>",
    "399": "\u0ba8\u0ba3\u0bcd\u0baa\u0ba9\u0bcd</w>",
    "400": "\u0ba8\u0ba3\u0bcd\u0baa\u0bbf</w>",
    "401": "\u0b95\u0bc1\u0bb4\u0ba8\u0bcd\u0ba4",
    "402": "\u0b95\u0bc1\u0bb4\u0ba8\u0bcd\u0ba4\u0bc8</w>",
    "403": "\u0b95\u0bbe\u0bb0\u0bcd</w>",
    "404": "\u0bae\u0bc7\u0b9a\u0bc8</w>",
    "405": "\u0ba8\u0bbe\u0bb1",
    "406": "\u0ba8\u0bbe\u0bb1\u0bcd\u0b95\u0bbe",
    "407": "\u0ba8\u0bbe\u0bb1\u0bcd\u0b95\u0bbe\u0bb2\u0bbf</w>",
    "408": "\u0b95\u0ba4\u0bb5\u0bc1</w>",
    "409": "\u0b9a\u0bbe\u0bb3\u0bb0",
    "410": "\u0b9a\u0bbe\u0bb3\u0bb0\u0bae\u0bcd</w>",
    "411": "\u0baa\u0b9f\u0bc1",
    "412": "\u0baa\u0b9f\u0bc1\u0b95\u0bcd\u0b95\u0bc8</w>",
    "413": "\u0ba4\u0bb2",
    "414": "\u0ba4\u0bb2\u0bc8\u0baf",
    "415": "\u0ba4\u0bb2\u0bc8\u0baf\u0ba3\u0bc8</w>",
    "416": "\u0baa\u0bbe\u0baf\u0bcd</w>",
    "417": "\u0b9a\u0bbf\u0bb5",
    "418": "\u0b9a\u0bbf\u0bb5\u0baa\u0bcd\u0baa\u0bc1</w>",
    "419": "\u0ba8\u0bc0\u0bb2\u0bae\u0bcd</w>",
    "420": "\u0baa\u0b9a\u0bcd\u0b9a",
    "421": "\u0baa\u0b9a\u0bcd\u0b9a\u0bc8</w>",
    "422": "\u0bae\u0b9e\u0bcd\u0b9a",
    "423": "\u0bae\u0b9e\u0bcd\u0b9a\u0bb3\u0bcd</w>",
    "424": "\u0bb5\u0bc6\u0bb3\u0bcd\u0bb3",
    "425": "\u0bb5\u0bc6\u0bb3\u0bcd\u0bb3\u0bc8</w>",
    "426": "\u0b95\u0bb0\u0bc1\u0baa\u0bcd\u0baa\u0bc1</w>",
    "427": "\u0b9a\u0bbe\u0bae\u0bcd\u0baa",
    "428": "\u0b9a\u0bbe\u0bae\u0bcd\u0baa\u0bb2\u0bcd</w>",
    "429": "\u0ba4\u0b99\u0bcd\u0b95\u0bae\u0bcd</w>",
    "430": "\u0bb5\u0bbe\u0ba9\u0bae\u0bcd</w>",
    "431": "\u0b95\u0b9f\u0bb2\u0bcd</w>",
    "432": "\u0bae\u0bb2\u0bc8</w>",
    "433": "\u0b95\u0bbe\u0b9f\u0bc1</w>",
    "434": "\u0b9a\u0bc2",
    "435": "\u0b9a\u0bc2\u0bb0\u0bbf\u0baf",
    "436": "\u0b9a\u0bc2\u0bb0\u0bbf\u0baf\u0ba9\u0bcd</w>",
    "437": "\u0b9a\u0ba8\u0bcd\u0ba4\u0bbf\u0bb0",
    "438": "\u0b9a\u0ba8\u0bcd\u0ba4\u0bbf\u0bb0\u0ba9\u0bcd</w>",
    "439": "\u0ba8\u0b9f\u0bcd\u0b9a",
    "440": "\u0ba8\u0b9f\u0bcd\u0b9a\u0ba4\u0bcd\u0ba4\u0bbf\u0bb0\u0bae\u0bcd</w>",
    "441": "\u0bae\u0bc7\u0b95\u0bae\u0bcd</w>",
    "442": "\u0bae\u0bb4\u0bc8</w>",
    "443": "\u0b95\u0bbe\u0bb1\u0bcd\u0bb1\u0bc1</w>",
    "444": "\u0bae\u0bbf\u0ba9\u0bcd",
    "445": "\u0bae\u0bbf\u0ba9\u0bcd\u0ba9",
    "446": "\u0bae\u0bbf\u0ba9\u0bcd\u0ba9\u0bb2\u0bcd</w>",
    "447": "\u0b87\u0b9f\u0bbf</w>",
    "448": "\u0bb5\u0b9a\u0ba8\u0bcd\u0ba4",
    "449": "\u0bb5\u0b9a\u0ba8\u0bcd\u0ba4\u0bae\u0bcd</w>",
    "450": "\u0b95\u0bcb\u0b9f\u0bc8</w>",
    "451": "\u0bae\u0bb4\u0bc8\u0b95\u0bcd\u0b95\u0bbe",
    "452": "\u0bae\u0bb4\u0bc8\u0b95\u0bcd\u0b95\u0bbe\u0bb2\u0bae\u0bcd</w>",
    "453": "\u0b95\u0bc1\u0bb3",
    "454": "\u0b95\u0bc1\u0bb3\u0bbf\u0bb0",
    "455": "\u0b95\u0bc1\u0bb3\u0bbf\u0bb0\u0bcd\u0b95\u0bbe",
    "456": "\u0b95\u0bc1\u0bb3\u0bbf\u0bb0\u0bcd\u0b95\u0bbe\u0bb2\u0bae\u0bcd</w>",
    "457": "\u0baa\u0bc2</w>",
    "458": "\u0baa\u0bb1",
    "459": "\u0baa\u0bb1\u0bb5\u0bc8</w>",
    "460": "\u0bae\u0bc0",
    "461": "\u0bae\u0bc0\u0ba9\u0bcd</w>",
    "462": "\u0bb5\u0bbf\u0bb2",
    "463": "\u0bb5\u0bbf\u0bb2\u0b99\u0bcd\u0b95",
    "464": "\u0bb5\u0bbf\u0bb2\u0b99\u0bcd\u0b95\u0bc1</w>",
    "465": "\u0b9a\u0bc6\u0ba3",
    "466": "\u0b9a\u0bc6\u0ba3\u0bcd\u0baa",
    "467": "\u0b9a\u0bc6\u0ba3\u0bcd\u0baa\u0b95\u0bae\u0bcd</w>",
    "468": "\u0bae\u0bb2\u0bcd",
    "469": "\u0bae\u0bb2\u0bcd\u0bb2\u0bbf</w>",
    "470": "\u0bb0\u0bcb",
    "471": "\u0bb0\u0bcb\u0b9c",
    "472": "\u0bb0\u0bcb\u0b9c\u0bbe</w>",
    "473": "\u0b9a\u0bbe\u0bae",
    "474": "\u0b9a\u0bbe\u0bae\u0ba8\u0bcd\u0ba4",
    "475": "\u0b9a\u0bbe\u0bae\u0ba8\u0bcd\u0ba4\u0bbf</w>",
    "476": "\u0b95\u0bbe\u0b95\u0bae\u0bcd</w>",
    "477": "\u0b95\u0bbf\u0bb3",
    "478": "\u0b95\u0bbf\u0bb3\u0bbf</w>",
    "479": "\u0baa\u0bc1\u0bb1",
    "480": "\u0baa\u0bc1\u0bb1\u0bbe</w>",
    "481": "\u0b95\u0bcb\u0bb4\u0bbf</w>",
    "482": "\u0b86\u0baa\u0bcd\u0baa",
    "483": "\u0b86\u0baa\u0bcd\u0baa\u0bbf\u0bb3\u0bcd</w>",
    "484": "\u0bb5\u0bbe\u0bb4\u0bc8\u0baa\u0bcd\u0baa",
    "485": "\u0bb5\u0bbe\u0bb4\u0bc8\u0baa\u0bcd\u0baa\u0bb4\u0bae\u0bcd</w>",
    "486": "\u0bae\u0bbe\u0bae\u0bcd\u0baa",
    "487": "\u0bae\u0bbe\u0bae\u0bcd\u0baa\u0bb4\u0bae\u0bcd</w>",
    "488": "\u0ba4\u0bbf\u0bb0\u0bbe",
    "489": "\u0ba4\u0bbf\u0bb0\u0bbe\u0b9f",
    "490": "\u0ba4\u0bbf\u0bb0\u0bbe\u0b9f\u0bcd\u0b9a",
    "491": "\u0ba4\u0bbf\u0bb0\u0bbe\u0b9f\u0bcd\u0b9a\u0bc8</w>",
    "492": "\u0b85\u0bb0\u0bbf",
    "493": "\u0b85\u0bb0\u0bbf\u0b9a\u0bbf</w>",
    "494": "\u0ba4\u0bcb\u0b9a\u0bc8</w>",
    "495": "\u0b87\u0b9f\u0bbf\u0baf",
    "496": "\u0b87\u0b9f\u0bbf\u0baf\u0bbe\u0baa",
    "497": "\u0b87\u0b9f\u0bbf\u0baf\u0bbe\u0baa\u0bcd\u0baa\u0bae\u0bcd</w>",
    "498": "\u0baa\u0bc2\u0bb0\u0bbf</w>",
    "499": "\u0b95\u0bbe\u0baa",
    "500": "\u0b95\u0bbe\u0baa\u0bbf</w>",
    "501": "\u0ba4\u0bc7\u0ba8\u0bc0",
    "502": "\u0ba4\u0bc7\u0ba8\u0bc0\u0bb0\u0bcd</w>",
    "503": "\u0baa\u0bbe\u0bb2\u0bcd</w>",
    "504": "\u0ba4\u0ba3\u0bcd\u0ba3",
    "505": "\u0ba4\u0ba3\u0bcd\u0ba3\u0bc0\u0bb0\u0bcd</w>",
    "506": "\u0b92\u0ba9\u0bcd\u0bb1\u0bc1</w>",
    "507": "\u0b87\u0bb0\u0ba3\u0bcd\u0b9f\u0bc1</w>",
    "508": "\u0bae\u0bc2",
    "509": "\u0bae\u0bc2\u0ba9\u0bcd\u0bb1\u0bc1</w>",
    "510": "\u0ba8\u0bbe\u0ba9",
    "511": "\u0ba8\u0bbe\u0ba9\u0bcd\u0b95",
    "512": "\u0ba8\u0bbe\u0ba9\u0bcd\u0b95\u0bc1</w>",
    "513": "\u0b90\u0ba8\u0bcd\u0ba4\u0bc1</w>",
    "514": "\u0b86\u0bb1\u0bc1</w>",
    "515": "\u0b8f\u0bb4",
    "516": "\u0b8f\u0bb4\u0bc1</w>",
    "517": "\u0b8e\u0b9f\u0bcd\u0b9f\u0bc1</w>",
    "518": "\u0b92\u0ba9",
    "519": "\u0b92\u0ba9\u0bcd\u0baa",
    "520": "\u0b92\u0ba9\u0bcd\u0baa\u0ba4",
    "521": "\u0b92\u0ba9\u0bcd\u0baa\u0ba4\u0bc1</w>",
    "522": "\u0baa\u0ba4\u0bcd\u0ba4",
    "523": "\u0baa\u0ba4\u0bcd\u0ba4\u0bc1</w>",
    "524": "\u0ba8\u0bc2",
    "525": "\u0ba8\u0bc2\u0bb1\u0bc1</w>",
    "526": "\u0b86\u0baf",
    "527": "\u0b86\u0baf\u0bbf\u0bb0\u0bae\u0bcd</w>",
    "528": "\u0bb5\u0ba3\u0b95\u0bcd\u0b95\u0bae\u0bcd</w>",
    "529": "\u0ba8\u0ba9\u0bcd\u0bb1",
    "530": "\u0ba8\u0ba9\u0bcd\u0bb1\u0bbf</w>",
    "531": "\u0bae\u0ba9\u0bcd",
    "532": "\u0bae\u0ba9\u0bcd\u0ba9\u0bbf",
    "533": "\u0bae\u0ba9\u0bcd\u0ba9\u0bbf\u0b95\u0bcd\u0b95",
    "534": "\u0bae\u0ba9\u0bcd\u0ba9\u0bbf\u0b95\u0bcd\u0b95\u0bb5",
    "535": "\u0bae\u0ba9\u0bcd\u0ba9\u0bbf\u0b95\u0bcd\u0b95\u0bb5\u0bc1\u0bae\u0bcd</w>",
    "536": "\u0ba4\u0baf\u0bb5\u0bc1",
    "537": "\u0ba4\u0baf\u0bb5\u0bc1\u0b9a\u0bc6\u0baf\u0bcd\u0ba4",
    "538": "\u0ba4\u0baf\u0bb5\u0bc1\u0b9a\u0bc6\u0baf\u0bcd\u0ba4\u0bc1</w>",
    "539": "\u0baa\u0bb3\u0bcd\u0bb3\u0bbf",
    "540": "\u0baa\u0bb3\u0bcd\u0bb3\u0bbf\u0b95\u0bcd\u0b95",
    "541": "\u0baa\u0bb3\u0bcd\u0bb3\u0bbf\u0b95\u0bcd\u0b95\u0bc2",
    "542": "\u0baa\u0bb3\u0bcd\u0bb3\u0bbf\u0b95\u0bcd\u0b95\u0bc2\u0b9f\u0bae\u0bcd</w>",
    "543": "\u0bae\u0bbe\u0ba3\u0bb5\u0bbf</w>",
    "544": "\u0bb5\u0bc0\u0b9f\u0bcd\u0b9f",
    "545": "\u0bb5\u0bc0\u0b9f\u0bcd\u0b9f\u0bc1\u0baa\u0bcd\u0baa",
    "546": "\u0bb5\u0bc0\u0b9f\u0bcd\u0b9f\u0bc1\u0baa\u0bcd\u0baa\u0bbe",
    "547": "\u0bb5\u0bc0\u0b9f\u0bcd\u0b9f\u0bc1\u0baa\u0bcd\u0baa\u0bbe\u0b9f\u0bae\u0bcd</w>",
    "548": "\u0bae\u0ba4\u0bbf\u0baa\u0bcd\u0baa",
    "549": "\u0bae\u0ba4\u0bbf\u0baa\u0bcd\u0baa\u0bc6\u0ba3\u0bcd</w>",
    "550": "\u0b85\u0bb4",
    "551": "\u0b85\u0bb4\u0bbf\u0baa\u0bcd\u0baa",
    "552": "\u0b85\u0bb4\u0bbf\u0baa\u0bcd\u0baa\u0bbe",
    "553": "\u0b85\u0bb4\u0bbf\u0baa\u0bcd\u0baa\u0bbe\u0ba9\u0bcd</w>",
    "554": "\u0b95\u0bbe\u0bb2",
    "555": "\u0b95\u0bbe\u0bb2\u0bcd\u0baa",
    "556": "\u0b95\u0bbe\u0bb2\u0bcd\u0baa\u0ba8\u0bcd\u0ba4\u0bc1</w>",
    "557": "\u0b95\u0bc8\u0baa\u0bcd\u0baa\u0ba8\u0bcd\u0ba4\u0bc1</w>",
    "558": "\u0b95\u0bbf\u0bb0\u0bbf",
    "559": "\u0b95\u0bbf\u0bb0\u0bbf\u0b95\u0bcd\u0b95",
    "560": "\u0b95\u0bbf\u0bb0\u0bbf\u0b95\u0bcd\u0b95\u0bc6",
    "561": "\u0b95\u0bbf\u0bb0\u0bbf\u0b95\u0bcd\u0b95\u0bc6\u0b9f",
    "562": "\u0b95\u0bbf\u0bb0\u0bbf\u0b95\u0bcd\u0b95\u0bc6\u0b9f\u0bcd</w>",
    "563": "\u0b93\u0b9f\u0bc1\u0ba4",
    "564": "\u0b93\u0b9f\u0bc1\u0ba4\u0bb2\u0bcd</w>",
    "565": "\u0ba4\u0bbe\u0ba3\u0bcd\u0b9f",
    "566": "\u0ba4\u0bbe\u0ba3\u0bcd\u0b9f\u0bc1\u0ba4\u0bb2\u0bcd</w>",
    "567": "\u0ba8\u0bc0\u0b9a\u0bcd\u0b9a",
    "568": "\u0ba8\u0bc0\u0b9a\u0bcd\u0b9a\u0bb2\u0bcd</w>",
    "569": "\u0b9a\u0bc8\u0b95\u0bcd\u0b95",
    "570": "\u0b9a\u0bc8\u0b95\u0bcd\u0b95\u0bbf\u0bb3\u0bcd</w>",
    "571": "\u0b9a\u0bbf\u0ba9\u0bbf",
    "572": "\u0b9a\u0bbf\u0ba9\u0bbf\u0bae\u0bbe</w>",
    "573": "\u0ba8\u0b9f\u0ba9\u0bae\u0bcd</w>",
    "574": "\u0b9a\u0bc6\u0baf\u0bcd\u0ba4\u0bbf",
    "575": "\u0b9a\u0bc6\u0baf\u0bcd\u0ba4\u0bbf\u0ba4\u0bcd\u0ba4",
    "576": "\u0b9a\u0bc6\u0baf\u0bcd\u0ba4\u0bbf\u0ba4\u0bcd\u0ba4\u0bbe",
    "577": "\u0b9a\u0bc6\u0baf\u0bcd\u0ba4\u0bbf\u0ba4\u0bcd\u0ba4\u0bbe\u0bb3\u0bcd</w>",
    "578": "\u0ba4\u0bca\u0bb2\u0bc8\u0b95\u0bcd\u0b95\u0bbe",
    "579": "\u0ba4\u0bca\u0bb2\u0bc8\u0b95\u0bcd\u0b95\u0bbe\u0b9f\u0bcd\u0b9a\u0bbf</w>",
    "580": "\u0b95\u0ba3",
    "581": "\u0b95\u0ba3\u0bbf",
    "582": "\u0b95\u0ba3\u0bbf\u0ba9\u0bbf",
    "583": "\u0b95\u0ba3\u0bbf\u0ba9\u0bbf</w>",
    "584": "\u0ba4\u0bca\u0bb2\u0bc8\u0baa",
    "585": "\u0ba4\u0bca\u0bb2\u0bc8\u0baa\u0bc7",
    "586": "\u0ba4\u0bca\u0bb2\u0bc8\u0baa\u0bc7\u0b9a\u0bbf</w>",
    "587": "\u0b87\u0ba3",
    "588": "\u0b87\u0ba3\u0bc8\u0baf",
    "589": "\u0b87\u0ba3\u0bc8\u0baf\u0bae\u0bcd</w>",
    "590": "\u0bae\u0bb0\u0bc1\u0ba4\u0bcd\u0ba4",
    "591": "\u0bae\u0bb0\u0bc1\u0ba4\u0bcd\u0ba4\u0bc1",
    "592": "\u0bae\u0bb0\u0bc1\u0ba4\u0bcd\u0ba4\u0bc1\u0bb5\u0bb0\u0bcd</w>",
    "593": "\u0baa\u0bca",
    "594": "\u0baa\u0bca\u0bb1",
    "595": "\u0baa\u0bca\u0bb1\u0bbf\u0baf",
    "596": "\u0baa\u0bca\u0bb1\u0bbf\u0baf\u0bbe\u0bb3\u0bb0\u0bcd</w>",
    "597": "\u0bb5\u0bb4",
    "598": "\u0bb5\u0bb4\u0b95\u0bcd\u0b95",
    "599": "\u0bb5\u0bb4\u0b95\u0bcd\u0b95\u0bb1\u0bbf",
    "600": "\u0bb5\u0bb4\u0b95\u0bcd\u0b95\u0bb1\u0bbf\u0b9e\u0bb0\u0bcd</w>",
    "601": "\u0bb5\u0ba3\u0bbf\u0b95\u0bb0\u0bcd</w>",
    "602": "\u0b95\u0bc8",
    "603": "\u0b95\u0bc8\u0bb5\u0bbf",
    "604": "\u0b95\u0bc8\u0bb5\u0bbf\u0ba9",
    "605": "\u0b95\u0bc8\u0bb5\u0bbf\u0ba9\u0bc8",
    "606": "\u0b95\u0bc8\u0bb5\u0bbf\u0ba9\u0bc8\u0b9e\u0bb0\u0bcd</w>",
    "607": "\u0bb5\u0bc7\u0bb2",
    "608": "\u0bb5\u0bc7\u0bb2\u0bc8\u0baf\u0bbe",
    "609": "\u0bb5\u0bc7\u0bb2\u0bc8\u0baf\u0bbe\u0bb3\u0bcd</w>",
    "610": "\u0bae\u0bc1\u0ba4",
    "611": "\u0bae\u0bc1\u0ba4\u0bb2",
    "612": "\u0bae\u0bc1\u0ba4\u0bb2\u0bbe\u0bb3\u0bbf</w>",
    "613": "\u0baa\u0bbe\u0b9f\u0b95",
    "614": "\u0baa\u0bbe\u0b9f\u0b95\u0bb0\u0bcd</w>",
    "615": "\u0b9a\u0bc6\u0ba9\u0bcd",
    "616": "\u0b9a\u0bc6\u0ba9\u0bcd\u0ba9\u0bc8</w>",
    "617": "\u0bae\u0ba4\u0bc1",
    "618": "\u0bae\u0ba4\u0bc1\u0bb0",
    "619": "\u0bae\u0ba4\u0bc1\u0bb0\u0bc8</w>",
    "620": "\u0b95\u0bcb\u0baf",
    "621": "\u0b95\u0bcb\u0baf\u0bae\u0bcd\u0baa",
    "622": "\u0b95\u0bcb\u0baf\u0bae\u0bcd\u0baa\u0bc1\u0ba4\u0bcd\u0ba4",
    "623": "\u0b95\u0bcb\u0baf\u0bae\u0bcd\u0baa\u0bc1\u0ba4\u0bcd\u0ba4\u0bc2\u0bb0\u0bcd</w>",
    "624": "\u0ba4\u0bbf\u0bb0\u0bc1\u0b9a",
    "625": "\u0ba4\u0bbf\u0bb0\u0bc1\u0b9a\u0bcd\u0b9a\u0bbf</w>",
    "626": "\u0b95\u0bcb\u0bb5\u0bc8</w>",
    "627": "\u0b9a\u0bc7\u0bb2\u0bae\u0bcd</w>",
    "628": "\u0ba4\u0bbf\u0bb0\u0bc1\u0ba8",
    "629": "\u0ba4\u0bbf\u0bb0\u0bc1\u0ba8\u0bc6",
    "630": "\u0ba4\u0bbf\u0bb0\u0bc1\u0ba8\u0bc6\u0bb2\u0bcd",
    "631": "\u0ba4\u0bbf\u0bb0\u0bc1\u0ba8\u0bc6\u0bb2\u0bcd\u0bb5\u0bc7",
    "632": "\u0ba4\u0bbf\u0bb0\u0bc1\u0ba8\u0bc6\u0bb2\u0bcd\u0bb5\u0bc7\u0bb2\u0bbf</w>",
    "633": "\u0ba4\u0b9e\u0bcd\u0b9a",
    "634": "\u0ba4\u0b9e\u0bcd\u0b9a\u0bbe",
    "635": "\u0ba4\u0b9e\u0bcd\u0b9a\u0bbe\u0bb5",
    "636": "\u0ba4\u0b9e\u0bcd\u0b9a\u0bbe\u0bb5\u0bc2\u0bb0\u0bcd</w>",
    "637": "\u0b87\u0ba8\u0bcd\u0ba4",
    "638": "\u0b87\u0ba8\u0bcd\u0ba4\u0bbf\u0baf",
    "639": "\u0b87\u0ba8\u0bcd\u0ba4\u0bbf\u0baf\u0bbe</w>",
    "640": "\u0ba4\u0bae\u0bbf\u0bb4\u0bcd",
    "641": "\u0ba4\u0bae\u0bbf\u0bb4\u0bcd\u0ba8\u0bbe",
    "642": "\u0ba4\u0bae\u0bbf\u0bb4\u0bcd\u0ba8\u0bbe\u0b9f\u0bc1</w>",
    "643": "\u0b86\u0b9a\u0bbf\u0baf",
    "644": "\u0b86\u0b9a\u0bbf\u0baf\u0bbe</w>",
    "645": "\u0b89\u0bb2",
    "646": "\u0b89\u0bb2\u0b95\u0bae\u0bcd</w>",
    "647": "\u0b95\u0bbe\u0bb2\u0bc8</w>",
    "648": "\u0bae\u0ba4\u0bbf\u0baf\u0bae\u0bcd</w>",
    "649": "\u0bae\u0bbe\u0bb2\u0bc8</w>",
    "650": "\u0b87\u0bb0\u0bb5\u0bc1</w>",
    "651": "\u0ba8\u0bc7\u0bb1\u0bcd\u0bb1\u0bc1</w>",
    "652": "\u0b87\u0ba9\u0bcd\u0bb1\u0bc1</w>",
    "653": "\u0ba8\u0bbe\u0bb3",
    "654": "\u0ba8\u0bbe\u0bb3\u0bc8</w>",
    "655": "\u0bb5\u0bbe\u0bb0\u0bae\u0bcd</w>",
    "656": "\u0bae\u0bbe\u0ba4\u0bae\u0bcd</w>",
    "657": "\u0bb5\u0bb0\u0bc1\u0b9f\u0bae\u0bcd</w>",
    "658": "\u0ba8\u0bc7\u0bb0\u0bae\u0bcd</w>",
    "659": "\u0b93\u0baf",
    "660": "\u0b93\u0baf\u0bcd\u0bb5\u0bc1</w>",
    "661": "\u0b9a\u0bae\u0bcd\u0baa",
    "662": "\u0b9a\u0bae\u0bcd\u0baa\u0bb3",
    "663": "\u0b9a\u0bae\u0bcd\u0baa\u0bb3\u0bae\u0bcd</w>",
    "664": "\u0b9a\u0bc6\u0bb2",
    "665": "\u0b9a\u0bc6\u0bb2\u0bb5\u0bc1</w>",
    "666": "\u0b9a\u0bc7\u0bae\u0bbf",
    "667": "\u0b9a\u0bc7\u0bae\u0bbf\u0baa\u0bcd\u0baa\u0bc1</w>",
    "668": "\u0bb5\u0b99\u0bcd\u0b95",
    "669": "\u0bb5\u0b99\u0bcd\u0b95\u0bbf</w>",
    "670": "\u0b95\u0bca",
    "671": "\u0b95\u0bca\u0b9f",
    "672": "\u0b95\u0bca\u0b9f\u0bc1\u0baa\u0bcd\u0baa",
    "673": "\u0b95\u0bca\u0b9f\u0bc1\u0baa\u0bcd\u0baa\u0ba9\u0bb5\u0bc1</w>",
    "674": "\u0b9a\u0bae",
    "675": "\u0b9a\u0bae\u0bc8\u0baf",
    "676": "\u0b9a\u0bae\u0bc8\u0baf\u0bb2\u0bcd</w>",
    "677": "\u0b9a\u0bbe\u0baa",
    "678": "\u0b9a\u0bbe\u0baa\u0bcd\u0baa",
    "679": "\u0b9a\u0bbe\u0baa\u0bcd\u0baa\u0bbe",
    "680": "\u0b9a\u0bbe\u0baa\u0bcd\u0baa\u0bbe\u0b9f\u0bc1</w>",
    "681": "\u0b9a\u0bc1\u0bb5\u0bc8</w>",
    "682": "\u0b89\u0baa\u0bcd\u0baa\u0bc1</w>",
    "683": "\u0b95\u0bb1",
    "684": "\u0b95\u0bb1\u0bbf</w>",
    "685": "\u0b9a\u0bbe\u0ba4\u0bae\u0bcd</w>",
    "686": "\u0bb0\u0b9a\u0bae\u0bcd</w>",
    "687": "\u0ba4\u0baf\u0bbf",
    "688": "\u0ba4\u0baf\u0bbf\u0bb0\u0bcd</w>",
    "689": "\u0bae\u0bbf\u0bb3",
    "690": "\u0bae\u0bbf\u0bb3\u0b95\u0bbe",
    "691": "\u0bae\u0bbf\u0bb3\u0b95\u0bbe\u0baf\u0bcd</w>",
    "692": "\u0bb5\u0bc6\u0b99\u0bcd\u0b95",
    "693": "\u0bb5\u0bc6\u0b99\u0bcd\u0b95\u0bbe",
    "694": "\u0bb5\u0bc6\u0b99\u0bcd\u0b95\u0bbe\u0baf\u0bae\u0bcd</w>",
    "695": "\u0baa\u0bc2\u0ba3\u0bcd\u0b9f\u0bc1</w>",
    "696": "\u0bae\u0b9a\u0bbe",
    "697": "\u0bae\u0b9a\u0bbe\u0bb2\u0bbe</w>",
    "698": "\u0baa\u0baf",
    "699": "\u0baa\u0baf\u0ba3\u0bae\u0bcd</w>",
    "700": "\u0baa\u0bb8",
    "701": "\u0baa\u0bb8\u0bcd</w>",
    "702": "\u0bb0\u0baf\u0bbf\u0bb2\u0bcd</w>",
    "703": "\u0bb5\u0bbf\u0bae\u0bbe\u0ba9\u0bae\u0bcd</w>",
    "704": "\u0bb9\u0bcb",
    "705": "\u0bb9\u0bcb\u0b9f\u0bcd\u0b9f",
    "706": "\u0bb9\u0bcb\u0b9f\u0bcd\u0b9f\u0bb2\u0bcd</w>",
    "707": "\u0b9a\u0bc1\u0bb1\u0bcd\u0bb1",
    "708": "\u0b9a\u0bc1\u0bb1\u0bcd\u0bb1\u0bc1",
    "709": "\u0b9a\u0bc1\u0bb1\u0bcd\u0bb1\u0bc1\u0bb2\u0bbe</w>",
    "710": "\u0b87\u0b9f\u0bae\u0bcd</w>",
    "711": "\u0baa\u0bc1\u0b95\u0bc8\u0baa\u0bcd\u0baa",
    "712": "\u0baa\u0bc1\u0b95\u0bc8\u0baa\u0bcd\u0baa\u0b9f\u0bae\u0bcd</w>",
    "713": "\u0ba8\u0bbf\u0ba9",
    "714": "\u0ba8\u0bbf\u0ba9\u0bc8",
    "715": "\u0ba8\u0bbf\u0ba9\u0bc8\u0bb5\u0bc1</w>",
    "716": "\u0b95\u0b9f\u0bb5\u0bc1",
    "717": "\u0b95\u0b9f\u0bb5\u0bc1\u0bb3\u0bcd</w>",
    "718": "\u0baa\u0bc2\u0b9c",
    "719": "\u0baa\u0bc2\u0b9c\u0bc8</w>",
    "720": "\u0b86\u0bb2",
    "721": "\u0b86\u0bb2\u0baf\u0bae\u0bcd</w>",
    "722": "\u0baa\u0bbf\u0bb0",
    "723": "\u0baa\u0bbf\u0bb0\u0bbe",
    "724": "\u0baa\u0bbf\u0bb0\u0bbe\u0bb0",
    "725": "\u0baa\u0bbf\u0bb0\u0bbe\u0bb0\u0bcd\u0ba4",
    "726": "\u0baa\u0bbf\u0bb0\u0bbe\u0bb0\u0bcd\u0ba4\u0bcd\u0ba4",
    "727": "\u0baa\u0bbf\u0bb0\u0bbe\u0bb0\u0bcd\u0ba4\u0bcd\u0ba4\u0ba9\u0bc8</w>",
    "728": "\u0ba4\u0bc6",
    "729": "\u0ba4\u0bc6\u0baf",
    "730": "\u0ba4\u0bc6\u0baf\u0bcd",
    "731": "\u0ba4\u0bc6\u0baf\u0bcd\u0bb5\u0bae\u0bcd</w>",
    "732": "\u0baa\u0bc1\u0ba3\u0bcd\u0ba3",
    "733": "\u0baa\u0bc1\u0ba3\u0bcd\u0ba3\u0bbf\u0baf\u0bae\u0bcd</w>",
    "734": "\u0baa\u0bbe\u0bb5\u0bae\u0bcd</w>",
    "735": "\u0bae\u0bcb",
    "736": "\u0bae\u0bcb\u0b9f",
    "737": "\u0bae\u0bcb\u0b9f\u0bcd",
    "738": "\u0bae\u0bcb\u0b9f\u0bcd\u0b9a\u0bae\u0bcd</w>",
    "739": "\u0b8e\u0ba3\u0bcd\u0ba3",
    "740": "\u0b8e\u0ba3\u0bcd\u0ba3\u0bae\u0bcd</w>",
    "741": "\u0b9a\u0bbf\u0ba8\u0bcd\u0ba4",
    "742": "\u0b9a\u0bbf\u0ba8\u0bcd\u0ba4\u0ba9\u0bc8</w>",
    "743": "\u0b9e\u0bbe\u0baa",
    "744": "\u0b9e\u0bbe\u0baa\u0b95\u0bae\u0bcd</w>",
    "745": "\u0bae\u0bb1",
    "746": "\u0bae\u0bb1\u0ba4",
    "747": "\u0bae\u0bb1\u0ba4\u0bbf</w>",
    "748": "\u0b95\u0bc7",
    "749": "\u0b95\u0bc7\u0bb3\u0bcd",
    "750": "\u0b95\u0bc7\u0bb3\u0bcd\u0bb5\u0bbf</w>",
    "751": "\u0baa\u0ba4",
    "752": "\u0baa\u0ba4\u0bbf\u0bb2\u0bcd</w>",
    "753": "\u0bb5\u0bbf\u0bb3\u0b95\u0bcd\u0b95\u0bae\u0bcd</w>",
    "754": "\u0baa\u0bc1\u0bb0\u0bbf",
    "755": "\u0baa\u0bc1\u0bb0\u0bbf\u0ba4",
    "756": "\u0baa\u0bc1\u0bb0\u0bbf\u0ba4\u0bb2\u0bcd</w>",
    "757": "\u0b95\u0ba9\u0bb5\u0bc1</w>",
    "758": "\u0bae\u0bca",
    "759": "\u0bae\u0bca\u0bb4\u0bbf</w>",
    "760": "\u0b87\u0bb2\u0b95\u0bcd\u0b95\u0bbf\u0baf\u0bae\u0bcd</w>",
    "761": "\u0b95\u0bb5\u0bbf\u0ba4",
    "762": "\u0b95\u0bb5\u0bbf\u0ba4\u0bc8</w>",
    "763": "\u0b9a\u0b99\u0bcd\u0b95\u0bae\u0bcd</w>",
    "764": "\u0b9a\u0b99\u0bcd\u0b95",
    "765": "\u0b9a\u0b99\u0bcd\u0b95\u0b95\u0bbe\u0bb2\u0bae\u0bcd</w>",
    "766": "\u0baa\u0bb4\u0ba8\u0bcd\u0ba4",
    "767": "\u0baa\u0bb4\u0ba8\u0bcd\u0ba4\u0bae\u0bbf\u0bb4",
    "768": "\u0baa\u0bb4\u0ba8\u0bcd\u0ba4\u0bae\u0bbf\u0bb4\u0bcd</w>",
    "769": "\u0b87\u0bb2\u0b95\u0bcd\u0b95\u0ba3\u0bae\u0bcd</w>",
    "770": "\u0baa\u0bc1\u0bb2",
    "771": "\u0baa\u0bc1\u0bb2\u0bb5\u0bb0\u0bcd</w>",
    "772": "\u0baa\u0b9f\u0bc8\u0baa\u0bcd\u0baa",
    "773": "\u0baa\u0b9f\u0bc8\u0baa\u0bcd\u0baa\u0bbe\u0bb3\u0bbf</w>",
    "774": "\u0ba8\u0bbe\u0b9f",
    "775": "\u0ba8\u0bbe\u0b9f\u0b95\u0bae\u0bcd</w>",
    "776": "\u0ba8\u0b9f\u0bbf\u0b95",
    "777": "\u0ba8\u0b9f\u0bbf\u0b95\u0bc8</w>",
    "778": "\u0b95\u0ba4\u0bbe",
    "779": "\u0b95\u0ba4\u0bbe\u0baa\u0bbe",
    "780": "\u0b95\u0ba4\u0bbe\u0baa\u0bbe\u0ba4\u0bcd\u0ba4\u0bbf\u0bb0\u0bae\u0bcd</w>",
    "781": "\u0bae\u0bc7\u0b9f\u0bc8</w>",
    "782": "\u0ba4\u0bbf\u0bb0\u0bc8</w>",
    "783": "\u0baa\u0bbe\u0b9f\u0bb2\u0bcd</w>",
    "784": "\u0bb5\u0bc0\u0bb0",
    "785": "\u0bb5\u0bc0\u0bb0\u0bb0\u0bcd</w>",
    "786": "\u0baa\u0ba8\u0bcd\u0ba4\u0bc1</w>",
    "787": "\u0b95\u0bcb\u0bb2\u0bcd</w>",
    "788": "\u0b85\u0ba3\u0bbf</w>",
    "789": "\u0baa\u0bcb",
    "790": "\u0baa\u0bcb\u0b9f\u0bcd\u0b9f\u0bbf</w>",
    "791": "\u0baa\u0bb0\u0bbf\u0b9a\u0bc1</w>",
    "792": "\u0baa\u0bbe\u0bb0\u0bbe",
    "793": "\u0baa\u0bbe\u0bb0\u0bbe\u0b9f\u0bcd\u0b9f\u0bc1</w>",
    "794": "\u0b95\u0bc1\u0b9f",
    "795": "\u0b95\u0bc1\u0b9f\u0bc1\u0bae",
    "796": "\u0b95\u0bc1\u0b9f\u0bc1\u0bae\u0bcd\u0baa\u0bae\u0bcd</w>",
    "797": "\u0b9a\u0bbf\u0bb0\u0bbf",
    "798": "\u0b9a\u0bbf\u0bb0\u0bbf\u0baa\u0bcd\u0baa\u0bc1</w>",
    "799": "\u0b95\u0ba3\u0bcd\u0ba3\u0bc0\u0bb0\u0bcd</w>",
    "800": "\u0b92\u0ba9\u0bcd\u0bb1",
    "801": "\u0b92\u0ba9\u0bcd\u0bb1\u0bbf",
    "802": "\u0b92\u0ba9\u0bcd\u0bb1\u0bbf\u0ba3",
    "803": "\u0b92\u0ba9\u0bcd\u0bb1\u0bbf\u0ba3\u0bc8",
    "804": "\u0b92\u0ba9\u0bcd\u0bb1\u0bbf\u0ba3\u0bc8\u0ba8\u0bcd\u0ba4\u0bc1</w>",
    "805": "\u0bb5\u0bbe\u0bb4\u0bcd\u0ba4\u0bb2\u0bcd</w>",
    "806": "\u0baa\u0b95",
    "807": "\u0baa\u0b95\u0bbf\u0bb0",
    "808": "\u0baa\u0b95\u0bbf\u0bb0\u0bcd\u0ba4\u0bb2\u0bcd</w>",
    "809": "\u0ba4\u0bca\u0bb4",
    "810": "\u0ba4\u0bca\u0bb4\u0bbf\u0bb2\u0bcd</w>",
    "811": "\u0baa\u0bb2\u0ba9\u0bcd</w>",
    "812": "\u0b9a\u0bbe\u0ba4",
    "813": "\u0b9a\u0bbe\u0ba4\u0ba9\u0bc8</w>",
    "814": "\u0b95\u0bb2\u0bcd",
    "815": "\u0b95\u0bb2\u0bcd\u0bb2",
    "816": "\u0b95\u0bb2\u0bcd\u0bb2\u0bc2",
    "817": "\u0b95\u0bb2\u0bcd\u0bb2\u0bc2\u0bb0\u0bbf</w>",
    "818": "\u0baa\u0bb2\u0bcd\u0b95",
    "819": "\u0baa\u0bb2\u0bcd\u0b95\u0bb2",
    "820": "\u0baa\u0bb2\u0bcd\u0b95\u0bb2\u0bc8\u0b95\u0bcd\u0b95",
    "821": "\u0baa\u0bb2\u0bcd\u0b95\u0bb2\u0bc8\u0b95\u0bcd\u0b95\u0bb4",
    "822": "\u0baa\u0bb2\u0bcd\u0b95\u0bb2\u0bc8\u0b95\u0bcd\u0b95\u0bb4\u0b95\u0bae\u0bcd</w>",
    "823": "\u0baa\u0b9f\u0bcd\u0b9f",
    "824": "\u0baa\u0b9f\u0bcd\u0b9f\u0bae\u0bcd</w>",
    "825": "\u0baa\u0bbe\u0bb0\u0ba4",
    "826": "\u0baa\u0bbe\u0bb0\u0ba4\u0bbf\u0baf",
    "827": "\u0baa\u0bbe\u0bb0\u0ba4\u0bbf\u0baf\u0bbe",
    "828": "\u0baa\u0bbe\u0bb0\u0ba4\u0bbf\u0baf\u0bbe\u0bb0\u0bcd</w>",
    "829": "\u0baa\u0bbe\u0b9f\u0bb2",
    "830": "\u0baa\u0bbe\u0b9f\u0bb2\u0bcd\u0b95",
    "831": "\u0baa\u0bbe\u0b9f\u0bb2\u0bcd\u0b95\u0bb3\u0bcd</w>"
  },
  "merges": {
    " |</w>": " </w>",
    "\u0bcd|</w>": "\u0bcd</w>",
    "\u0ba9|\u0bbf": "\u0ba9\u0bbf",
    "\u0bae|\u0ba9\u0bbf": "\u0bae\u0ba9\u0bbf",
    "\u0bae\u0ba9\u0bbf|\u0ba4": "\u0bae\u0ba9\u0bbf\u0ba4",
    "\u0bae\u0ba9\u0bbf\u0ba4|\u0ba9": "\u0bae\u0ba9\u0bbf\u0ba4\u0ba9",
    "\u0bc1|</w>": "\u0bc1</w>",
    "\u0bcd|\u0b95": "\u0bcd\u0b95",
    "\u0b95|\u0bcd\u0b95": "\u0b95\u0bcd\u0b95",
    "\u0bae|\u0bcd</w>": "\u0bae\u0bcd</w>",
    "\u0b95\u0bcd\u0b95|\u0bc1</w>": "\u0b95\u0bcd\u0b95\u0bc1</w>",
    "\u0bae\u0ba9\u0bbf\u0ba4\u0ba9|\u0bcd</w>": "\u0bae\u0ba9\u0bbf\u0ba4\u0ba9\u0bcd</w>",
    "\u0bae\u0ba9\u0bbf\u0ba4\u0ba9|\u0bc1": "\u0bae\u0ba9\u0bbf\u0ba4\u0ba9\u0bc1",
    "\u0bae\u0ba9\u0bbf\u0ba4\u0ba9\u0bc1|\u0b95\u0bcd\u0b95\u0bc1</w>": "\u0bae\u0ba9\u0bbf\u0ba4\u0ba9\u0bc1\u0b95\u0bcd\u0b95\u0bc1</w>",
    "\u0bbf|</w>": "\u0bbf</w>",
    "\u0bc8|</w>": "\u0bc8</w>",
    "\u0bcd|\u0baa": "\u0bcd\u0baa",
    "\u0bc1|\u0ba4": "\u0bc1\u0ba4",
    "\u0b85|\u0ba9": "\u0b85\u0ba9",
    "\u0b9a|\u0bae\u0bcd</w>": "\u0b9a\u0bae\u0bcd</w>",
    "\u0baa|\u0bbe": "\u0baa\u0bbe",
    "\u0bcd|\u0ba4": "\u0bcd\u0ba4",
    "\u0bb2|\u0bcd</w>": "\u0bb2\u0bcd</w>",
    "\u0bbe|\u0baa": "\u0bbe\u0baa",
    "\u0bcd\u0baa|\u0bc1</w>": "\u0bcd\u0baa\u0bc1</w>",
    "\u0bb5|\u0bc1</w>": "\u0bb5\u0bc1</w>",
    "\u0ba9|\u0bcd</w>": "\u0ba9\u0bcd</w>",
    "\u0bb0|\u0bbf": "\u0bb0\u0bbf",
    "\u0bb5|\u0bbf</w>": "\u0bb5\u0bbf</w>",
    "\u0bb0|\u0bc1": "\u0bb0\u0bc1",
    "\u0bcd|\u0b9f": "\u0bcd\u0b9f",
    "\u0b95\u0bcd\u0b95|\u0bae\u0bcd</w>": "\u0b95\u0bcd\u0b95\u0bae\u0bcd</w>",
    "\u0b85\u0ba9|\u0bcd\u0baa\u0bc1</w>": "\u0b85\u0ba9\u0bcd\u0baa\u0bc1</w>",
    "\u0ba3|\u0bc8</w>": "\u0ba3\u0bc8</w>",
    "\u0b95|\u0bb0\u0bc1": "\u0b95\u0bb0\u0bc1",
    "\u0b87|\u0bb0": "\u0b87\u0bb0",
    "\u0ba8|\u0bc7": "\u0ba8\u0bc7",
    "\u0bb0|\u0bcd</w>": "\u0bb0\u0bcd</w>",
    "\u0b95\u0bb0\u0bc1|\u0ba3\u0bc8</w>": "\u0b95\u0bb0\u0bc1\u0ba3\u0bc8</w>",
    "\u0baa|\u0bb0\u0bbf": "\u0baa\u0bb0\u0bbf",
    "\u0baa\u0bbe|\u0b9a\u0bae\u0bcd</w>": "\u0baa\u0bbe\u0b9a\u0bae\u0bcd</w>",
    "\u0ba8\u0bc7|\u0b9a\u0bae\u0bcd</w>": "\u0ba8\u0bc7\u0b9a\u0bae\u0bcd</w>",
    "\u0b89|\u0ba4": "\u0b89\u0ba4",
    "\u0b89\u0ba4|\u0bb5\u0bbf</w>": "\u0b89\u0ba4\u0bb5\u0bbf</w>",
    "\u0b87\u0bb0|\u0b95\u0bcd\u0b95\u0bae\u0bcd</w>": "\u0b87\u0bb0\u0b95\u0bcd\u0b95\u0bae\u0bcd</w>",
    "\u0baa\u0bb0\u0bbf|\u0bb5\u0bc1</w>": "\u0baa\u0bb0\u0bbf\u0bb5\u0bc1</w>",
    "\u0b85\u0ba9|\u0bc1\u0ba4": "\u0b85\u0ba9\u0bc1\u0ba4",
    "\u0b85\u0ba9\u0bc1\u0ba4|\u0bbe\u0baa": "\u0b85\u0ba9\u0bc1\u0ba4\u0bbe\u0baa",
    "\u0b85\u0ba9\u0bc1\u0ba4\u0bbe\u0baa|\u0bae\u0bcd</w>": "\u0b85\u0ba9\u0bc1\u0ba4\u0bbe\u0baa\u0bae\u0bcd</w>",
    "\u0bae|\u0bbe": "\u0bae\u0bbe",
    "\u0ba8|\u0bcd\u0ba4": "\u0ba8\u0bcd\u0ba4",
    "\u0bb5|\u0bbe": "\u0bb5\u0bbe",
    "\u0b9f|\u0bcd\u0b9f": "\u0b9f\u0bcd\u0b9f",
    "\u0bcd|\u0b9a": "\u0bcd\u0b9a",
    "\u0bcd|\u0bb1": "\u0bcd\u0bb1",
    "\u0bb5\u0bbe|\u0bb4": "\u0bb5\u0bbe\u0bb4",
    "\u0bbf|\u0bb2\u0bcd</w>": "\u0bbf\u0bb2\u0bcd</w>",
    "\u0bae|\u0bc1": "\u0bae\u0bc1",
    "\u0ba3|\u0bcd": "\u0ba3\u0bcd",
    "\u0ba3\u0bcd|\u0ba3": "\u0ba3\u0bcd\u0ba3",
    "\u0bb5\u0bbe\u0bb4|\u0bcd\u0b95": "\u0bb5\u0bbe\u0bb4\u0bcd\u0b95",
    "\u0bbf|\u0bb0": "\u0bbf\u0bb0",
    "\u0b9a|\u0bc1</w>": "\u0b9a\u0bc1</w>",
    "\u0bb5|\u0bbf": "\u0bb5\u0bbf",
    "\u0bae\u0bc1|\u0bb0": "\u0bae\u0bc1\u0bb0",
    "\u0bae\u0bc1\u0bb0|\u0b9a\u0bc1</w>": "\u0bae\u0bc1\u0bb0\u0b9a\u0bc1</w>",
    "\u0bb5\u0bbe\u0bb4\u0bcd\u0b95|</w>": "\u0bb5\u0bbe\u0bb4\u0bcd\u0b95</w>",
    "\u0bb3|\u0bcd</w>": "\u0bb3\u0bcd</w>",
    "\u0bc8|\u0baa": "\u0bc8\u0baa",
    "\u0b95|\u0ba3\u0bcd\u0ba3": "\u0b95\u0ba3\u0bcd\u0ba3",
    "\u0b99|\u0bcd\u0b95": "\u0b99\u0bcd\u0b95",
    "\u0ba9|\u0bae\u0bcd</w>": "\u0ba9\u0bae\u0bcd</w>",
    "\u0bae|\u0bbf": "\u0bae\u0bbf",
    "\u0baa\u0bbe|\u0b9f": "\u0baa\u0bbe\u0b9f",
    "\u0b95\u0ba3\u0bcd\u0ba3|\u0ba9\u0bcd</w>": "\u0b95\u0ba3\u0bcd\u0ba3\u0ba9\u0bcd</w>",
    "\u0ba8|\u0bbe": "\u0ba8\u0bbe",
    "\u0bb1|\u0bcd\u0bb1": "\u0bb1\u0bcd\u0bb1",
    "\u0bc1|\u0bae\u0bcd</w>": "\u0bc1\u0bae\u0bcd</w>",
    "\u0bae\u0bbe|\u0ba9\u0bae\u0bcd</w>": "\u0bae\u0bbe\u0ba9\u0bae\u0bcd</w>",
    "\u0ba4|\u0bbe": "\u0ba4\u0bbe",
    "\u0b95|\u0bc1": "\u0b95\u0bc1",
    "\u0bc6|\u0ba3": "\u0bc6\u0ba3",
    "\u0b95|\u0bbe": "\u0b95\u0bbe",
    "\u0baa|\u0bc1\u0ba4": "\u0baa\u0bc1\u0ba4",
    "\u0bbf\u0bb0|\u0bae\u0bcd</w>": "\u0bbf\u0bb0\u0bae\u0bcd</w>",
    "\u0bcd\u0b9a|\u0bbf</w>": "\u0bcd\u0b9a\u0bbf</w>",
    "\u0bae\u0bbf|\u0bb4": "\u0bae\u0bbf\u0bb4",
    "\u0bbe|</w>": "\u0bbe</w>",
    "\u0bc6\u0ba3|\u0bcd</w>": "\u0bc6\u0ba3\u0bcd</w>",
    "\u0b95|\u0bae\u0bcd</w>": "\u0b95\u0bae\u0bcd</w>",
    "\u0baf|\u0bcd</w>": "\u0baf\u0bcd</w>",
    "\u0bb2|\u0bc8</w>": "\u0bb2\u0bc8</w>",
    "\u0bb2|\u0bcd": "\u0bb2\u0bcd",
    "\u0ba4|\u0bae\u0bbf\u0bb4": "\u0ba4\u0bae\u0bbf\u0bb4",
    "\u0baa|\u0bc6\u0ba3\u0bcd</w>": "\u0baa\u0bc6\u0ba3\u0bcd</w>",
    "\u0bb5|\u0bc7": "\u0bb5\u0bc7",
    "\u0baf|\u0bbf\u0bb2\u0bcd</w>": "\u0baf\u0bbf\u0bb2\u0bcd</w>",
    "\u0bae\u0ba9\u0bbf\u0ba4|\u0bbe\u0baa": "\u0bae\u0ba9\u0bbf\u0ba4\u0bbe\u0baa",
    "\u0bae\u0ba9\u0bbf\u0ba4\u0bbe\u0baa|\u0bbf": "\u0bae\u0ba9\u0bbf\u0ba4\u0bbe\u0baa\u0bbf",
    "\u0bae\u0ba9\u0bbf\u0ba4\u0bbe\u0baa\u0bbf|\u0bae\u0bbe\u0ba9\u0bae\u0bcd</w>": "\u0bae\u0ba9\u0bbf\u0ba4\u0bbe\u0baa\u0bbf\u0bae\u0bbe\u0ba9\u0bae\u0bcd</w>",
    "\u0ba4\u0bae\u0bbf\u0bb4|\u0bcd</w>": "\u0ba4\u0bae\u0bbf\u0bb4\u0bcd</w>",
    "\u0bc1|\u0bae": "\u0bc1\u0bae",
    "\u0b9a|\u0bbf": "\u0b9a\u0bbf",
    "\u0bb5|\u0bc6": "\u0bb5\u0bc6",
    "\u0ba9|\u0bcd\u0bb1": "\u0ba9\u0bcd\u0bb1",
    "\u0ba3|\u0bcd\u0b9f": "\u0ba3\u0bcd\u0b9f",
    "\u0b9f\u0bcd\u0b9f|\u0bc1</w>": "\u0b9f\u0bcd\u0b9f\u0bc1</w>",
    "\u0bc1\u0ba4|\u0bcd\u0ba4": "\u0bc1\u0ba4\u0bcd\u0ba4",
    "\u0b95\u0bc1|\u0baf\u0bbf\u0bb2\u0bcd</w>": "\u0b95\u0bc1\u0baf\u0bbf\u0bb2\u0bcd</w>",
    "\u0baa\u0bc1\u0ba4|\u0bc1\u0bae": "\u0baa\u0bc1\u0ba4\u0bc1\u0bae",
    "\u0baa\u0bc1\u0ba4\u0bc1\u0bae|\u0bc8\u0baa": "\u0baa\u0bc1\u0ba4\u0bc1\u0bae\u0bc8\u0baa",
    "\u0baa\u0bc1\u0ba4\u0bc1\u0bae\u0bc8\u0baa|\u0bcd</w>": "\u0baa\u0bc1\u0ba4\u0bc1\u0bae\u0bc8\u0baa\u0bcd</w>",
    "\u0ba8\u0bbe|\u0b9f\u0bcd\u0b9f": "\u0ba8\u0bbe\u0b9f\u0bcd\u0b9f",
    "\u0ba8\u0bbe\u0b9f\u0bcd\u0b9f|\u0bbf\u0bb2\u0bcd</w>": "\u0ba8\u0bbe\u0b9f\u0bcd\u0b9f\u0bbf\u0bb2\u0bcd</w>",
    "\u0b9a|\u0bc1\u0ba4": "\u0b9a\u0bc1\u0ba4",
    "\u0b9a\u0bc1\u0ba4|\u0ba8\u0bcd\u0ba4": "\u0b9a\u0bc1\u0ba4\u0ba8\u0bcd\u0ba4",
    "\u0b9a\u0bc1\u0ba4\u0ba8\u0bcd\u0ba4|\u0bbf\u0bb0\u0bae\u0bcd</w>": "\u0b9a\u0bc1\u0ba4\u0ba8\u0bcd\u0ba4\u0bbf\u0bb0\u0bae\u0bcd</w>",
    "\u0b8e|\u0b99\u0bcd\u0b95": "\u0b8e\u0b99\u0bcd\u0b95",
    "\u0b8e\u0b99\u0bcd\u0b95|\u0bb3\u0bcd</w>": "\u0b8e\u0b99\u0bcd\u0b95\u0bb3\u0bcd</w>",
    "\u0ba4\u0bbe|\u0baf\u0bcd</w>": "\u0ba4\u0bbe\u0baf\u0bcd</w>",
    "\u0b95|\u0bcb": "\u0b95\u0bcb",
    "\u0bb3|\u0bcd": "\u0bb3\u0bcd",
    "\u0baa|\u0bcd\u0baa\u0bc1</w>": "\u0baa\u0bcd\u0baa\u0bc1</w>",
    "\u0bae|\u0bcd\u0baa": "\u0bae\u0bcd\u0baa",
    "\u0bbf|\u0baf": "\u0bbf\u0baf",
    "\u0bb2\u0bcd|\u0bb5\u0bbf</w>": "\u0bb2\u0bcd\u0bb5\u0bbf</w>",
    "\u0baa|\u0bcd\u0baa": "\u0baa\u0bcd\u0baa",
    "\u0b9f|\u0bc1</w>": "\u0b9f\u0bc1</w>",
    "\u0bb3\u0bcd|\u0bb3": "\u0bb3\u0bcd\u0bb3",
    "\u0b9a|\u0bbe": "\u0b9a\u0bbe",
    "\u0bc8|\u0baf": "\u0bc8\u0baf",
    "\u0bb2|\u0bae\u0bcd</w>": "\u0bb2\u0bae\u0bcd</w>",
    "\u0ba4|\u0bcb": "\u0ba4\u0bcb",
    "\u0bcd\u0baa|\u0bae\u0bcd</w>": "\u0bcd\u0baa\u0bae\u0bcd</w>",
    "\u0ba9\u0bcd\u0bb1|\u0bc1</w>": "\u0ba9\u0bcd\u0bb1\u0bc1</w>",
    "\u0bb5\u0bc6|\u0bb1\u0bcd\u0bb1": "\u0bb5\u0bc6\u0bb1\u0bcd\u0bb1",
    "\u0bb5\u0bc6\u0bb1\u0bcd\u0bb1|\u0bbf</w>": "\u0bb5\u0bc6\u0bb1\u0bcd\u0bb1\u0bbf</w>",
    "\u0b9f|\u0bc1\u0ba4": "\u0b9f\u0bc1\u0ba4",
    "\u0b8e|\u0ba9\u0bcd</w>": "\u0b8e\u0ba9\u0bcd</w>",
    "\u0baa\u0bbe\u0b9f|\u0bc1\u0bae\u0bcd</w>": "\u0baa\u0bbe\u0b9f\u0bc1\u0bae\u0bcd</w>",
    "\u0ba4|\u0bcd\u0ba4": "\u0ba4\u0bcd\u0ba4",
    "\u0bb5|\u0bc0": "\u0bb5\u0bc0",
    "\u0bb5\u0bbf|\u0bb3": "\u0bb5\u0bbf\u0bb3",
    "\u0ba8|\u0b9f": "\u0ba8\u0b9f",
    "\u0baa|\u0bc1": "\u0baa\u0bc1",
    "\u0ba8\u0bcd\u0ba4|\u0bc1</w>": "\u0ba8\u0bcd\u0ba4\u0bc1</w>",
    "\u0bb0|\u0bc1\u0ba4\u0bcd\u0ba4": "\u0bb0\u0bc1\u0ba4\u0bcd\u0ba4",
    "\u0ba4\u0bcb|\u0bb2\u0bcd\u0bb5\u0bbf</w>": "\u0ba4\u0bcb\u0bb2\u0bcd\u0bb5\u0bbf</w>",
    "\u0b9f|\u0bae\u0bcd</w>": "\u0b9f\u0bae\u0bcd</w>",
    "\u0bbe|\u0bb3": "\u0bbe\u0bb3",
    "\u0bb5|\u0bae\u0bcd</w>": "\u0bb5\u0bae\u0bcd</w>",
    "\u0bb5\u0bbf|\u0b9f\u0bc1\u0ba4": "\u0bb5\u0bbf\u0b9f\u0bc1\u0ba4",
    "\u0bb5\u0bbf\u0b9f\u0bc1\u0ba4|\u0bb2\u0bc8</w>": "\u0bb5\u0bbf\u0b9f\u0bc1\u0ba4\u0bb2\u0bc8</w>",
    "\u0bb5\u0bc7|\u0ba3\u0bcd\u0b9f": "\u0bb5\u0bc7\u0ba3\u0bcd\u0b9f",
    "\u0bb5\u0bc7\u0ba3\u0bcd\u0b9f|\u0bc1\u0bae\u0bcd</w>": "\u0bb5\u0bc7\u0ba3\u0bcd\u0b9f\u0bc1\u0bae\u0bcd</w>",
    "\u0b9a|\u0bc8</w>": "\u0b9a\u0bc8</w>",
    "\u0baa|\u0b9f": "\u0baa\u0b9f",
    "\u0b95\u0bcd\u0b95|\u0bc8</w>": "\u0b95\u0bcd\u0b95\u0bc8</w>",
    "\u0b95|\u0b9f": "\u0b95\u0b9f",
    "\u0bb0\u0bbf|\u0baf": "\u0bb0\u0bbf\u0baf",
    "\u0b9a|\u0ba8\u0bcd\u0ba4": "\u0b9a\u0ba8\u0bcd\u0ba4",
    "\u0bc8|\u0b95\u0bcd\u0b95": "\u0bc8\u0b95\u0bcd\u0b95",
    "\u0baa|\u0bc2": "\u0baa\u0bc2",
    "\u0b95|\u0bbf": "\u0b95\u0bbf",
    "\u0bc8\u0baa|\u0bcd\u0baa": "\u0bc8\u0baa\u0bcd\u0baa",
    "\u0b9a|\u0bc6": "\u0b9a\u0bc6",
    "\u0bb5|\u0bb0\u0bc1\u0ba4\u0bcd\u0ba4": "\u0bb5\u0bb0\u0bc1\u0ba4\u0bcd\u0ba4",
    "\u0bb5\u0bb0\u0bc1\u0ba4\u0bcd\u0ba4|\u0bae\u0bcd</w>": "\u0bb5\u0bb0\u0bc1\u0ba4\u0bcd\u0ba4\u0bae\u0bcd</w>",
    "\u0b86|\u0b9a\u0bbf": "\u0b86\u0b9a\u0bbf",
    "\u0bcd\u0b9a|\u0bcd\u0b9a\u0bbf</w>": "\u0bcd\u0b9a\u0bcd\u0b9a\u0bbf</w>",
    "\u0b9e|\u0bb0\u0bcd</w>": "\u0b9e\u0bb0\u0bcd</w>",
    "\u0bbf|\u0b95": "\u0bbf\u0b95",
    "\u0ba9|\u0bc8</w>": "\u0ba9\u0bc8</w>",
    "\u0bbf|\u0ba9": "\u0bbf\u0ba9",
    "\u0b95|\u0bb1\u0bcd\u0bb1": "\u0b95\u0bb1\u0bcd\u0bb1",
    "\u0ba9|\u0bcd\u0baa\u0bae\u0bcd</w>": "\u0ba9\u0bcd\u0baa\u0bae\u0bcd</w>",
    "\u0b87|\u0bb2": "\u0b87\u0bb2",
    "\u0baa\u0bbe|\u0b9f\u0bcd\u0b9f\u0bc1</w>": "\u0baa\u0bbe\u0b9f\u0bcd\u0b9f\u0bc1</w>",
    "\u0bae\u0bbe|</w>": "\u0bae\u0bbe</w>",
    "\u0bb0|\u0bbf</w>": "\u0bb0\u0bbf</w>",
    "\u0bb5\u0bc0|\u0b9f\u0bc1</w>": "\u0bb5\u0bc0\u0b9f\u0bc1</w>",
    "\u0baa|\u0bb3\u0bcd\u0bb3": "\u0baa\u0bb3\u0bcd\u0bb3",
    "\u0baa\u0bc1\u0ba4|\u0bcd\u0ba4": "\u0baa\u0bc1\u0ba4\u0bcd\u0ba4",
    "\u0baa\u0bc1\u0ba4\u0bcd\u0ba4|\u0b95\u0bae\u0bcd</w>": "\u0baa\u0bc1\u0ba4\u0bcd\u0ba4\u0b95\u0bae\u0bcd</w>",
    "\u0bae|\u0bc7": "\u0bae\u0bc7",
    "\u0bb2|\u0bbf</w>": "\u0bb2\u0bbf</w>",
    "\u0b95|\u0ba4": "\u0b95\u0ba4",
    "\u0bb3|\u0bb0": "\u0bb3\u0bb0",
    "\u0ba8|\u0bc0": "\u0ba8\u0bc0",
    "\u0ba9|\u0bcd": "\u0ba9\u0bcd",
    "\u0bb5|\u0bc8</w>": "\u0bb5\u0bc8</w>",
    "\u0ba4|\u0bc7": "\u0ba4\u0bc7",
    "\u0ba8|\u0bae\u0bcd\u0baa": "\u0ba8\u0bae\u0bcd\u0baa",
    "\u0ba8\u0bae\u0bcd\u0baa|\u0bbf": "\u0ba8\u0bae\u0bcd\u0baa\u0bbf",
    "\u0ba8\u0bae\u0bcd\u0baa\u0bbf|\u0b95\u0bcd\u0b95\u0bc8</w>": "\u0ba8\u0bae\u0bcd\u0baa\u0bbf\u0b95\u0bcd\u0b95\u0bc8</w>",
    "\u0b86\u0b9a\u0bbf|\u0bb0\u0bbf\u0baf": "\u0b86\u0b9a\u0bbf\u0bb0\u0bbf\u0baf",
    "\u0b86\u0b9a\u0bbf\u0bb0\u0bbf\u0baf|\u0bb0\u0bcd</w>": "\u0b86\u0b9a\u0bbf\u0bb0\u0bbf\u0baf\u0bb0\u0bcd</w>",
    "\u0bae\u0bbe|\u0ba3": "\u0bae\u0bbe\u0ba3",
    "\u0bcd|\u0bb5\u0bc1</w>": "\u0bcd\u0bb5\u0bc1</w>",
    "\u0bae|\u0ba4": "\u0bae\u0ba4",
    "\u0bc8\u0baf|\u0bbe": "\u0bc8\u0baf\u0bbe",
    "\u0bc1\u0ba4|\u0bb2\u0bcd</w>": "\u0bc1\u0ba4\u0bb2\u0bcd</w>",
    "\u0ba4|\u0bca": "\u0ba4\u0bca",
    "\u0b9f|\u0bcd\u0b9a\u0bbf</w>": "\u0b9f\u0bcd\u0b9a\u0bbf</w>",
    "\u0bbe\u0bb3|\u0bb0\u0bcd</w>": "\u0bbe\u0bb3\u0bb0\u0bcd</w>",
    "\u0bb1|\u0bbf": "\u0bb1\u0bbf",
    "\u0bbf\u0b95|\u0bb0\u0bcd</w>": "\u0bbf\u0b95\u0bb0\u0bcd</w>",
    "\u0b95|\u0bb5\u0bbf": "\u0b95\u0bb5\u0bbf",
    "\u0bbf\u0baf|\u0bae\u0bcd</w>": "\u0bbf\u0baf\u0bae\u0bcd</w>",
    "\u0bb5|\u0bb0\u0bc1": "\u0bb5\u0bb0\u0bc1",
    "\u0ba3|\u0bbf</w>": "\u0ba3\u0bbf</w>",
    "\u0b85\u0ba9|\u0bc1": "\u0b85\u0ba9\u0bc1",
    "\u0b85\u0ba9\u0bc1|\u0baa": "\u0b85\u0ba9\u0bc1\u0baa",
    "\u0b85\u0ba9\u0bc1\u0baa|\u0bb5\u0bae\u0bcd</w>": "\u0b85\u0ba9\u0bc1\u0baa\u0bb5\u0bae\u0bcd</w>",
    "\u0ba8|\u0bcb": "\u0ba8\u0bcb",
    "\u0ba8\u0bcb|\u0b95\u0bcd\u0b95\u0bae\u0bcd</w>": "\u0ba8\u0bcb\u0b95\u0bcd\u0b95\u0bae\u0bcd</w>",
    "\u0bae\u0bc1|\u0baf": "\u0bae\u0bc1\u0baf",
    "\u0bae\u0bc1\u0baf|\u0bb1": "\u0bae\u0bc1\u0baf\u0bb1",
    "\u0bae\u0bc1\u0baf\u0bb1|\u0bcd\u0b9a\u0bbf</w>": "\u0bae\u0bc1\u0baf\u0bb1\u0bcd\u0b9a\u0bbf</w>",
    "\u0b8e|\u0ba9\u0bcd\u0bb1\u0bc1</w>": "\u0b8e\u0ba9\u0bcd\u0bb1\u0bc1</w>",
    "\u0baa\u0bbe\u0b9f|\u0bbf\u0ba9": "\u0baa\u0bbe\u0b9f\u0bbf\u0ba9",
    "\u0baa\u0bbe\u0b9f\u0bbf\u0ba9|\u0bc7": "\u0baa\u0bbe\u0b9f\u0bbf\u0ba9\u0bc7",
    "\u0baa\u0bbe\u0b9f\u0bbf\u0ba9\u0bc7|\u0ba9\u0bcd</w>": "\u0baa\u0bbe\u0b9f\u0bbf\u0ba9\u0bc7\u0ba9\u0bcd</w>",
    "\u0b9f\u0bcd\u0b9f|\u0bbf</w>": "\u0b9f\u0bcd\u0b9f\u0bbf</w>",
    "\u0b9a|\u0b95\u0bcb": "\u0b9a\u0b95\u0bcb",
    "\u0b9a\u0b95\u0bcb|\u0ba4": "\u0b9a\u0b95\u0bcb\u0ba4",
    "\u0ba8|\u0ba3": "\u0ba8\u0ba3",
    "\u0ba8\u0ba3|\u0bcd\u0baa": "\u0ba8\u0ba3\u0bcd\u0baa",
    "\u0bb4|\u0ba8\u0bcd\u0ba4": "\u0bb4\u0ba8\u0bcd\u0ba4",
    "\u0baa\u0bb3\u0bcd\u0bb3|\u0bbf</w>": "\u0baa\u0bb3\u0bcd\u0bb3\u0bbf</w>",
    "\u0bcd\u0b95|\u0bbe": "\u0bcd\u0b95\u0bbe",
    "\u0bb5\u0bbf\u0bb3|\u0b95\u0bcd\u0b95\u0bc1</w>": "\u0bb5\u0bbf\u0bb3\u0b95\u0bcd\u0b95\u0bc1</w>",
    "\u0b9a|\u0bcd\u0b9a": "\u0b9a\u0bcd\u0b9a",
    "\u0b9e|\u0bcd\u0b9a": "\u0b9e\u0bcd\u0b9a",
    "\u0b99\u0bcd\u0b95|\u0bae\u0bcd</w>": "\u0b99\u0bcd\u0b95\u0bae\u0bcd</w>",
    "\u0ba4\u0bcd\u0ba4|\u0bbf\u0bb0\u0bae\u0bcd</w>": "\u0ba4\u0bcd\u0ba4\u0bbf\u0bb0\u0bae\u0bcd</w>",
    "\u0bae|\u0bb4": "\u0bae\u0bb4",
    "\u0bb1\u0bcd\u0bb1|\u0bc1</w>": "\u0bb1\u0bcd\u0bb1\u0bc1</w>",
    "\u0b87|\u0b9f": "\u0b87\u0b9f",
    "\u0b9f|\u0bc8</w>": "\u0b9f\u0bc8</w>",
    "\u0bc8\u0b95\u0bcd\u0b95|\u0bbe": "\u0bc8\u0b95\u0bcd\u0b95\u0bbe",
    "\u0bb4|\u0bbf</w>": "\u0bb4\u0bbf</w>",
    "\u0bbf|\u0bb3\u0bcd</w>": "\u0bbf\u0bb3\u0bcd</w>",
    "\u0bb4|\u0bae\u0bcd</w>": "\u0bb4\u0bae\u0bcd</w>",
    "\u0ba4|\u0bbf\u0bb0": "\u0ba4\u0bbf\u0bb0",
    "\u0b9a|\u0bbf</w>": "\u0b9a\u0bbf</w>",
    "\u0bc0|\u0bb0\u0bcd</w>": "\u0bc0\u0bb0\u0bcd</w>",
    "\u0ba3\u0bcd\u0b9f|\u0bc1</w>": "\u0ba3\u0bcd\u0b9f\u0bc1</w>",
    "\u0bb1|\u0bc1</w>": "\u0bb1\u0bc1</w>",
    "\u0bb5|\u0ba3": "\u0bb5\u0ba3",
    "\u0ba4|\u0baf": "\u0ba4\u0baf",
    "\u0bb5|\u0bc1": "\u0bb5\u0bc1",
    "\u0b9a\u0bc6|\u0baf": "\u0b9a\u0bc6\u0baf",
    "\u0b9a\u0bc6\u0baf|\u0bcd\u0ba4": "\u0b9a\u0bc6\u0baf\u0bcd\u0ba4",
    "\u0b9a\u0ba8\u0bcd\u0ba4|\u0bcb": "\u0b9a\u0ba8\u0bcd\u0ba4\u0bcb",
    "\u0b9a\u0ba8\u0bcd\u0ba4\u0bcb|\u0bb7": "\u0b9a\u0ba8\u0bcd\u0ba4\u0bcb\u0bb7",
    "\u0b9a\u0ba8\u0bcd\u0ba4\u0bcb\u0bb7|\u0bae\u0bcd</w>": "\u0b9a\u0ba8\u0bcd\u0ba4\u0bcb\u0bb7\u0bae\u0bcd</w>",
    "\u0bae\u0bbe\u0ba3|\u0bb5": "\u0bae\u0bbe\u0ba3\u0bb5",
    "\u0bae\u0bbe\u0ba3\u0bb5|\u0ba9\u0bcd</w>": "\u0bae\u0bbe\u0ba3\u0bb5\u0ba9\u0bcd</w>",
    "\u0baa\u0bbe\u0b9f|\u0bae\u0bcd</w>": "\u0baa\u0bbe\u0b9f\u0bae\u0bcd</w>",
    "\u0bc1|\u0baa\u0bcd\u0baa": "\u0bc1\u0baa\u0bcd\u0baa",
    "\u0ba4\u0bc7|\u0bb0": "\u0ba4\u0bc7\u0bb0",
    "\u0ba4\u0bc7\u0bb0|\u0bcd\u0bb5\u0bc1</w>": "\u0ba4\u0bc7\u0bb0\u0bcd\u0bb5\u0bc1</w>",
    "\u0bbf|\u0baa\u0bcd\u0baa": "\u0bbf\u0baa\u0bcd\u0baa",
    "\u0baa|\u0bc7": "\u0baa\u0bc7",
    "\u0baa\u0bc7|\u0ba9": "\u0baa\u0bc7\u0ba9",
    "\u0baa\u0bc7\u0ba9|\u0bbe</w>": "\u0baa\u0bc7\u0ba9\u0bbe</w>",
    "\u0bb5\u0bbf\u0bb3|\u0bc8\u0baf\u0bbe": "\u0bb5\u0bbf\u0bb3\u0bc8\u0baf\u0bbe",
    "\u0bb5\u0bbf\u0bb3\u0bc8\u0baf\u0bbe|\u0b9f\u0bcd\u0b9f\u0bc1</w>": "\u0bb5\u0bbf\u0bb3\u0bc8\u0baf\u0bbe\u0b9f\u0bcd\u0b9f\u0bc1</w>",
    "\u0b95|\u0bc8\u0baa\u0bcd\u0baa": "\u0b95\u0bc8\u0baa\u0bcd\u0baa",
    "\u0bae|\u0b95\u0bbf": "\u0bae\u0b95\u0bbf",
    "\u0bae\u0b95\u0bbf|\u0bb4": "\u0bae\u0b95\u0bbf\u0bb4",
    "\u0bae\u0b95\u0bbf\u0bb4|\u0bcd\u0b9a\u0bcd\u0b9a\u0bbf</w>": "\u0bae\u0b95\u0bbf\u0bb4\u0bcd\u0b9a\u0bcd\u0b9a\u0bbf</w>",
    "\u0b87|\u0b9a\u0bc8</w>": "\u0b87\u0b9a\u0bc8</w>",
    "\u0b95\u0ba4|\u0bc8</w>": "\u0b95\u0ba4\u0bc8</w>",
    "\u0ba4\u0bca|\u0bb2": "\u0ba4\u0bca\u0bb2",
    "\u0bb5|\u0bb0\u0bcd</w>": "\u0bb5\u0bb0\u0bcd</w>",
    "\u0bbe\u0bb3|\u0bbf</w>": "\u0bbe\u0bb3\u0bbf</w>",
    "\u0b8e|\u0bb4": "\u0b8e\u0bb4",
    "\u0b8e\u0bb4|\u0bc1\u0ba4\u0bcd\u0ba4": "\u0b8e\u0bb4\u0bc1\u0ba4\u0bcd\u0ba4",
    "\u0b8e\u0bb4\u0bc1\u0ba4\u0bcd\u0ba4|\u0bbe\u0bb3\u0bb0\u0bcd</w>": "\u0b8e\u0bb4\u0bc1\u0ba4\u0bcd\u0ba4\u0bbe\u0bb3\u0bb0\u0bcd</w>",
    "\u0b95\u0bb5\u0bbf|\u0b9e\u0bb0\u0bcd</w>": "\u0b95\u0bb5\u0bbf\u0b9e\u0bb0\u0bcd</w>",
    "\u0ba8\u0b9f|\u0bbf\u0b95\u0bb0\u0bcd</w>": "\u0ba8\u0b9f\u0bbf\u0b95\u0bb0\u0bcd</w>",
    "\u0bc2|\u0bb0\u0bcd</w>": "\u0bc2\u0bb0\u0bcd</w>",
    "\u0ba4|\u0bbf": "\u0ba4\u0bbf",
    "\u0ba4\u0bbf|\u0bb0\u0bc1": "\u0ba4\u0bbf\u0bb0\u0bc1",
    "\u0b9a|\u0bc7": "\u0b9a\u0bc7",
    "\u0bb0|\u0bae\u0bcd</w>": "\u0bb0\u0bae\u0bcd</w>",
    "\u0ba4|\u0bae\u0bcd</w>": "\u0ba4\u0bae\u0bcd</w>",
    "\u0b95\u0bbe|\u0bb2\u0bae\u0bcd</w>": "\u0b95\u0bbe\u0bb2\u0bae\u0bcd</w>",
    "\u0bb5\u0bc7|\u0bb2\u0bc8</w>": "\u0bb5\u0bc7\u0bb2\u0bc8</w>",
    "\u0baa|\u0ba3\u0bbf</w>": "\u0baa\u0ba3\u0bbf</w>",
    "\u0b89|\u0bb4": "\u0b89\u0bb4",
    "\u0b89\u0bb4|\u0bc8\u0baa": "\u0b89\u0bb4\u0bc8\u0baa",
    "\u0b89\u0bb4\u0bc8\u0baa|\u0bcd\u0baa\u0bc1</w>": "\u0b89\u0bb4\u0bc8\u0baa\u0bcd\u0baa\u0bc1</w>",
    "\u0bb5\u0bb0\u0bc1|\u0bae\u0bbe\u0ba9\u0bae\u0bcd</w>": "\u0bb5\u0bb0\u0bc1\u0bae\u0bbe\u0ba9\u0bae\u0bcd</w>",
    "\u0b95\u0b9f|\u0ba9\u0bcd</w>": "\u0b95\u0b9f\u0ba9\u0bcd</w>",
    "\u0ba9|\u0bb5\u0bc1</w>": "\u0ba9\u0bb5\u0bc1</w>",
    "\u0b9a|\u0bc1": "\u0b9a\u0bc1",
    "\u0baf|\u0bae\u0bcd</w>": "\u0baf\u0bae\u0bcd</w>",
    "\u0bb2|\u0bbe</w>": "\u0bb2\u0bbe</w>",
    "\u0ba3|\u0bae\u0bcd</w>": "\u0ba3\u0bae\u0bcd</w>",
    "\u0b95|\u0bb2\u0bcd\u0bb5\u0bbf</w>": "\u0b95\u0bb2\u0bcd\u0bb5\u0bbf</w>",
    "\u0b85|\u0bb1\u0bbf": "\u0b85\u0bb1\u0bbf",
    "\u0b85\u0bb1\u0bbf|\u0bb5\u0bc1</w>": "\u0b85\u0bb1\u0bbf\u0bb5\u0bc1</w>",
    "\u0baa\u0b9f|\u0bbf": "\u0baa\u0b9f\u0bbf",
    "\u0baa\u0b9f\u0bbf|\u0baa\u0bcd\u0baa\u0bc1</w>": "\u0baa\u0b9f\u0bbf\u0baa\u0bcd\u0baa\u0bc1</w>",
    "\u0b95\u0bb1\u0bcd\u0bb1|\u0bb2\u0bcd</w>": "\u0b95\u0bb1\u0bcd\u0bb1\u0bb2\u0bcd</w>",
    "\u0bb5\u0bbe\u0bb4\u0bcd\u0b95|\u0bcd\u0b95": "\u0bb5\u0bbe\u0bb4\u0bcd\u0b95\u0bcd\u0b95",
    "\u0bb5\u0bbe\u0bb4\u0bcd\u0b95\u0bcd\u0b95|\u0bc8</w>": "\u0bb5\u0bbe\u0bb4\u0bcd\u0b95\u0bcd\u0b95\u0bc8</w>",
    "\u0b87|\u0ba9\u0bcd\u0baa\u0bae\u0bcd</w>": "\u0b87\u0ba9\u0bcd\u0baa\u0bae\u0bcd</w>",
    "\u0ba4|\u0bc1": "\u0ba4\u0bc1",
    "\u0ba4\u0bc1|\u0ba9\u0bcd\u0baa\u0bae\u0bcd</w>": "\u0ba4\u0bc1\u0ba9\u0bcd\u0baa\u0bae\u0bcd</w>",
    "\u0b87\u0bb2|\u0b95\u0bcd\u0b95\u0bc1</w>": "\u0b87\u0bb2\u0b95\u0bcd\u0b95\u0bc1</w>",
    "\u0b95\u0bb1\u0bcd\u0bb1|\u0bc1": "\u0b95\u0bb1\u0bcd\u0bb1\u0bc1",
    "\u0b95\u0bb1\u0bcd\u0bb1\u0bc1|\u0b95\u0bcd\u0b95": "\u0b95\u0bb1\u0bcd\u0bb1\u0bc1\u0b95\u0bcd\u0b95",
    "\u0b95\u0bb1\u0bcd\u0bb1\u0bc1\u0b95\u0bcd\u0b95|\u0bca": "\u0b95\u0bb1\u0bcd\u0bb1\u0bc1\u0b95\u0bcd\u0b95\u0bca",
    "\u0b95\u0bb1\u0bcd\u0bb1\u0bc1\u0b95\u0bcd\u0b95\u0bca|\u0bb3\u0bcd\u0bb3": "\u0b95\u0bb1\u0bcd\u0bb1\u0bc1\u0b95\u0bcd\u0b95\u0bca\u0bb3\u0bcd\u0bb3",
    "\u0b95\u0bb1\u0bcd\u0bb1\u0bc1\u0b95\u0bcd\u0b95\u0bca\u0bb3\u0bcd\u0bb3|\u0bc1\u0ba4\u0bb2\u0bcd</w>": "\u0b95\u0bb1\u0bcd\u0bb1\u0bc1\u0b95\u0bcd\u0b95\u0bca\u0bb3\u0bcd\u0bb3\u0bc1\u0ba4\u0bb2\u0bcd</w>",
    "\u0bb5|\u0bb3\u0bb0": "\u0bb5\u0bb3\u0bb0",
    "\u0bb5\u0bb3\u0bb0|\u0bcd\u0b9a\u0bcd\u0b9a\u0bbf</w>": "\u0bb5\u0bb3\u0bb0\u0bcd\u0b9a\u0bcd\u0b9a\u0bbf</w>",
    "\u0b87\u0bb2|\u0b95\u0bcd\u0b95": "\u0b87\u0bb2\u0b95\u0bcd\u0b95",
    "\u0b95\u0bbe|\u0b9f\u0bcd\u0b9a\u0bbf</w>": "\u0b95\u0bbe\u0b9f\u0bcd\u0b9a\u0bbf</w>",
    "\u0baa\u0bbe|\u0bb0": "\u0baa\u0bbe\u0bb0",
    "\u0bcd\u0ba4|\u0bb2\u0bcd</w>": "\u0bcd\u0ba4\u0bb2\u0bcd</w>",
    "\u0baa|\u0bb2": "\u0baa\u0bb2",
    "\u0b85|</w>": "\u0b85</w>",
    "\u0b86|</w>": "\u0b86</w>",
    "\u0b87|</w>": "\u0b87</w>",
    "\u0b88|</w>": "\u0b88</w>",
    "\u0b89|</w>": "\u0b89</w>",
    "\u0b8a|</w>": "\u0b8a</w>",
    "\u0b8e|</w>": "\u0b8e</w>",
    "\u0b8f|</w>": "\u0b8f</w>",
    "\u0b90|</w>": "\u0b90</w>",
    "\u0b92|</w>": "\u0b92</w>",
    "\u0b93|</w>": "\u0b93</w>",
    "\u0b94|</w>": "\u0b94</w>",
    "\u0b85|\u0bae": "\u0b85\u0bae",
    "\u0b85\u0bae|\u0bcd": "\u0b85\u0bae\u0bcd",
    "\u0b85\u0bae\u0bcd|\u0bae\u0bbe</w>": "\u0b85\u0bae\u0bcd\u0bae\u0bbe</w>",
    "\u0b85|\u0baa\u0bcd\u0baa": "\u0b85\u0baa\u0bcd\u0baa",
    "\u0b85\u0baa\u0bcd\u0baa|\u0bbe</w>": "\u0b85\u0baa\u0bcd\u0baa\u0bbe</w>",
    "\u0ba4\u0bbe|\u0ba4\u0bcd\u0ba4": "\u0ba4\u0bbe\u0ba4\u0bcd\u0ba4",
    "\u0ba4\u0bbe\u0ba4\u0bcd\u0ba4|\u0bbe</w>": "\u0ba4\u0bbe\u0ba4\u0bcd\u0ba4\u0bbe</w>",
    "\u0baa\u0bbe|\u0b9f\u0bcd\u0b9f\u0bbf</w>": "\u0baa\u0bbe\u0b9f\u0bcd\u0b9f\u0bbf</w>",
    "\u0b9a\u0b95\u0bcb\u0ba4|\u0bb0": "\u0b9a\u0b95\u0bcb\u0ba4\u0bb0",
    "\u0b9a\u0b95\u0bcb\u0ba4\u0bb0|\u0ba9\u0bcd</w>": "\u0b9a\u0b95\u0bcb\u0ba4\u0bb0\u0ba9\u0bcd</w>",
    "\u0b9a\u0b95\u0bcb\u0ba4|\u0bb0\u0bbf</w>": "\u0b9a\u0b95\u0bcb\u0ba4\u0bb0\u0bbf</w>",
    "\u0bae\u0bbe|\u0bae\u0bbe</w>": "\u0bae\u0bbe\u0bae\u0bbe</w>",
    "\u0bae\u0bbe|\u0bae": "\u0bae\u0bbe\u0bae",
    "\u0bae\u0bbe\u0bae|\u0bbf</w>": "\u0bae\u0bbe\u0bae\u0bbf</w>",
    "\u0ba8\u0ba3\u0bcd\u0baa|\u0ba9\u0bcd</w>": "\u0ba8\u0ba3\u0bcd\u0baa\u0ba9\u0bcd</w>",
    "\u0ba8\u0ba3\u0bcd\u0baa|\u0bbf</w>": "\u0ba8\u0ba3\u0bcd\u0baa\u0bbf</w>",
    "\u0b95\u0bc1|\u0bb4\u0ba8\u0bcd\u0ba4": "\u0b95\u0bc1\u0bb4\u0ba8\u0bcd\u0ba4",
    "\u0b95\u0bc1\u0bb4\u0ba8\u0bcd\u0ba4|\u0bc8</w>": "\u0b95\u0bc1\u0bb4\u0ba8\u0bcd\u0ba4\u0bc8</w>",
    "\u0b95\u0bbe|\u0bb0\u0bcd</w>": "\u0b95\u0bbe\u0bb0\u0bcd</w>",
    "\u0bae\u0bc7|\u0b9a\u0bc8</w>": "\u0bae\u0bc7\u0b9a\u0bc8</w>",
    "\u0ba8\u0bbe|\u0bb1": "\u0ba8\u0bbe\u0bb1",
    "\u0ba8\u0bbe\u0bb1|\u0bcd\u0b95\u0bbe": "\u0ba8\u0bbe\u0bb1\u0bcd\u0b95\u0bbe",
    "\u0ba8\u0bbe\u0bb1\u0bcd\u0b95\u0bbe|\u0bb2\u0bbf</w>": "\u0ba8\u0bbe\u0bb1\u0bcd\u0b95\u0bbe\u0bb2\u0bbf</w>",
    "\u0b95\u0ba4|\u0bb5\u0bc1</w>": "\u0b95\u0ba4\u0bb5\u0bc1</w>",
    "\u0b9a\u0bbe|\u0bb3\u0bb0": "\u0b9a\u0bbe\u0bb3\u0bb0",
    "\u0b9a\u0bbe\u0bb3\u0bb0|\u0bae\u0bcd</w>": "\u0b9a\u0bbe\u0bb3\u0bb0\u0bae\u0bcd</w>",
    "\u0baa\u0b9f|\u0bc1": "\u0baa\u0b9f\u0bc1",
    "\u0baa\u0b9f\u0bc1|\u0b95\u0bcd\u0b95\u0bc8</w>": "\u0baa\u0b9f\u0bc1\u0b95\u0bcd\u0b95\u0bc8</w>",
    "\u0ba4|\u0bb2": "\u0ba4\u0bb2",
    "\u0ba4\u0bb2|\u0bc8\u0baf": "\u0ba4\u0bb2\u0bc8\u0baf",
    "\u0ba4\u0bb2\u0bc8\u0baf|\u0ba3\u0bc8</w>": "\u0ba4\u0bb2\u0bc8\u0baf\u0ba3\u0bc8</w>",
    "\u0baa\u0bbe|\u0baf\u0bcd</w>": "\u0baa\u0bbe\u0baf\u0bcd</w>",
    "\u0b9a\u0bbf|\u0bb5": "\u0b9a\u0bbf\u0bb5",
    "\u0b9a\u0bbf\u0bb5|\u0baa\u0bcd\u0baa\u0bc1</w>": "\u0b9a\u0bbf\u0bb5\u0baa\u0bcd\u0baa\u0bc1</w>",
    "\u0ba8\u0bc0|\u0bb2\u0bae\u0bcd</w>": "\u0ba8\u0bc0\u0bb2\u0bae\u0bcd</w>",
    "\u0baa|\u0b9a\u0bcd\u0b9a": "\u0baa\u0b9a\u0bcd\u0b9a",
    "\u0baa\u0b9a\u0bcd\u0b9a|\u0bc8</w>": "\u0baa\u0b9a\u0bcd\u0b9a\u0bc8</w>",
    "\u0bae|\u0b9e\u0bcd\u0b9a": "\u0bae\u0b9e\u0bcd\u0b9a",
    "\u0bae\u0b9e\u0bcd\u0b9a|\u0bb3\u0bcd</w>": "\u0bae\u0b9e\u0bcd\u0b9a\u0bb3\u0bcd</w>",
    "\u0bb5\u0bc6|\u0bb3\u0bcd\u0bb3": "\u0bb5\u0bc6\u0bb3\u0bcd\u0bb3",
    "\u0bb5\u0bc6\u0bb3\u0bcd\u0bb3|\u0bc8</w>": "\u0bb5\u0bc6\u0bb3\u0bcd\u0bb3\u0bc8</w>",
    "\u0b95\u0bb0\u0bc1|\u0baa\u0bcd\u0baa\u0bc1</w>": "\u0b95\u0bb0\u0bc1\u0baa\u0bcd\u0baa\u0bc1</w>",
    "\u0b9a\u0bbe|\u0bae\u0bcd\u0baa": "\u0b9a\u0bbe\u0bae\u0bcd\u0baa",
    "\u0b9a\u0bbe\u0bae\u0bcd\u0baa|\u0bb2\u0bcd</w>": "\u0b9a\u0bbe\u0bae\u0bcd\u0baa\u0bb2\u0bcd</w>",
    "\u0ba4|\u0b99\u0bcd\u0b95\u0bae\u0bcd</w>": "\u0ba4\u0b99\u0bcd\u0b95\u0bae\u0bcd</w>",
    "\u0bb5\u0bbe|\u0ba9\u0bae\u0bcd</w>": "\u0bb5\u0bbe\u0ba9\u0bae\u0bcd</w>",
    "\u0b95\u0b9f|\u0bb2\u0bcd</w>": "\u0b95\u0b9f\u0bb2\u0bcd</w>",
    "\u0bae|\u0bb2\u0bc8</w>": "\u0bae\u0bb2\u0bc8</w>",
    "\u0b95\u0bbe|\u0b9f\u0bc1</w>": "\u0b95\u0bbe\u0b9f\u0bc1</w>",
    "\u0b9a|\u0bc2": "\u0b9a\u0bc2",
    "\u0b9a\u0bc2|\u0bb0\u0bbf\u0baf": "\u0b9a\u0bc2\u0bb0\u0bbf\u0baf",
    "\u0b9a\u0bc2\u0bb0\u0bbf\u0baf|\u0ba9\u0bcd</w>": "\u0b9a\u0bc2\u0bb0\u0bbf\u0baf\u0ba9\u0bcd</w>",
    "\u0b9a\u0ba8\u0bcd\u0ba4|\u0bbf\u0bb0": "\u0b9a\u0ba8\u0bcd\u0ba4\u0bbf\u0bb0",
    "\u0b9a\u0ba8\u0bcd\u0ba4\u0bbf\u0bb0|\u0ba9\u0bcd</w>": "\u0b9a\u0ba8\u0bcd\u0ba4\u0bbf\u0bb0\u0ba9\u0bcd</w>",
    "\u0ba8\u0b9f|\u0bcd\u0b9a": "\u0ba8\u0b9f\u0bcd\u0b9a",
    "\u0ba8\u0b9f\u0bcd\u0b9a|\u0ba4\u0bcd\u0ba4\u0bbf\u0bb0\u0bae\u0bcd</w>": "\u0ba8\u0b9f\u0bcd\u0b9a\u0ba4\u0bcd\u0ba4\u0bbf\u0bb0\u0bae\u0bcd</w>",
    "\u0bae\u0bc7|\u0b95\u0bae\u0bcd</w>": "\u0bae\u0bc7\u0b95\u0bae\u0bcd</w>",
    "\u0bae\u0bb4|\u0bc8</w>": "\u0bae\u0bb4\u0bc8</w>",
    "\u0b95\u0bbe|\u0bb1\u0bcd\u0bb1\u0bc1</w>": "\u0b95\u0bbe\u0bb1\u0bcd\u0bb1\u0bc1</w>",
    "\u0bae\u0bbf|\u0ba9\u0bcd": "\u0bae\u0bbf\u0ba9\u0bcd",
    "\u0bae\u0bbf\u0ba9\u0bcd|\u0ba9": "\u0bae\u0bbf\u0ba9\u0bcd\u0ba9",
    "\u0bae\u0bbf\u0ba9\u0bcd\u0ba9|\u0bb2\u0bcd</w>": "\u0bae\u0bbf\u0ba9\u0bcd\u0ba9\u0bb2\u0bcd</w>",
    "\u0b87\u0b9f|\u0bbf</w>": "\u0b87\u0b9f\u0bbf</w>",
    "\u0bb5|\u0b9a\u0ba8\u0bcd\u0ba4": "\u0bb5\u0b9a\u0ba8\u0bcd\u0ba4",
    "\u0bb5\u0b9a\u0ba8\u0bcd\u0ba4|\u0bae\u0bcd</w>": "\u0bb5\u0b9a\u0ba8\u0bcd\u0ba4\u0bae\u0bcd</w>",
    "\u0b95\u0bcb|\u0b9f\u0bc8</w>": "\u0b95\u0bcb\u0b9f\u0bc8</w>",
    "\u0bae\u0bb4|\u0bc8\u0b95\u0bcd\u0b95\u0bbe": "\u0bae\u0bb4\u0bc8\u0b95\u0bcd\u0b95\u0bbe",
    "\u0bae\u0bb4\u0bc8\u0b95\u0bcd\u0b95\u0bbe|\u0bb2\u0bae\u0bcd</w>": "\u0bae\u0bb4\u0bc8\u0b95\u0bcd\u0b95\u0bbe\u0bb2\u0bae\u0bcd</w>",
    "\u0b95\u0bc1|\u0bb3": "\u0b95\u0bc1\u0bb3",
    "\u0b95\u0bc1\u0bb3|\u0bbf\u0bb0": "\u0b95\u0bc1\u0bb3\u0bbf\u0bb0",
    "\u0b95\u0bc1\u0bb3\u0bbf\u0bb0|\u0bcd\u0b95\u0bbe": "\u0b95\u0bc1\u0bb3\u0bbf\u0bb0\u0bcd\u0b95\u0bbe",
    "\u0b95\u0bc1\u0bb3\u0bbf\u0bb0\u0bcd\u0b95\u0bbe|\u0bb2\u0bae\u0bcd</w>": "\u0b95\u0bc1\u0bb3\u0bbf\u0bb0\u0bcd\u0b95\u0bbe\u0bb2\u0bae\u0bcd</w>",
    "\u0baa\u0bc2|</w>": "\u0baa\u0bc2</w>",
    "\u0baa|\u0bb1": "\u0baa\u0bb1",
    "\u0baa\u0bb1|\u0bb5\u0bc8</w>": "\u0baa\u0bb1\u0bb5\u0bc8</w>",
    "\u0bae|\u0bc0": "\u0bae\u0bc0",
    "\u0bae\u0bc0|\u0ba9\u0bcd</w>": "\u0bae\u0bc0\u0ba9\u0bcd</w>",
    "\u0bb5\u0bbf|\u0bb2": "\u0bb5\u0bbf\u0bb2",
    "\u0bb5\u0bbf\u0bb2|\u0b99\u0bcd\u0b95": "\u0bb5\u0bbf\u0bb2\u0b99\u0bcd\u0b95",
    "\u0bb5\u0bbf\u0bb2\u0b99\u0bcd\u0b95|\u0bc1</w>": "\u0bb5\u0bbf\u0bb2\u0b99\u0bcd\u0b95\u0bc1</w>",
    "\u0b9a|\u0bc6\u0ba3": "\u0b9a\u0bc6\u0ba3",
    "\u0b9a\u0bc6\u0ba3|\u0bcd\u0baa": "\u0b9a\u0bc6\u0ba3\u0bcd\u0baa",
    "\u0b9a\u0bc6\u0ba3\u0bcd\u0baa|\u0b95\u0bae\u0bcd</w>": "\u0b9a\u0bc6\u0ba3\u0bcd\u0baa\u0b95\u0bae\u0bcd</w>",
    "\u0bae|\u0bb2\u0bcd": "\u0bae\u0bb2\u0bcd",
    "\u0bae\u0bb2\u0bcd|\u0bb2\u0bbf</w>": "\u0bae\u0bb2\u0bcd\u0bb2\u0bbf</w>",
    "\u0bb0|\u0bcb": "\u0bb0\u0bcb",
    "\u0bb0\u0bcb|\u0b9c": "\u0bb0\u0bcb\u0b9c",
    "\u0bb0\u0bcb\u0b9c|\u0bbe</w>": "\u0bb0\u0bcb\u0b9c\u0bbe</w>",
    "\u0b9a\u0bbe|\u0bae": "\u0b9a\u0bbe\u0bae",
    "\u0b9a\u0bbe\u0bae|\u0ba8\u0bcd\u0ba4": "\u0b9a\u0bbe\u0bae\u0ba8\u0bcd\u0ba4",
    "\u0b9a\u0bbe\u0bae\u0ba8\u0bcd\u0ba4|\u0bbf</w>": "\u0b9a\u0bbe\u0bae\u0ba8\u0bcd\u0ba4\u0bbf</w>",
    "\u0b95\u0bbe|\u0b95\u0bae\u0bcd</w>": "\u0b95\u0bbe\u0b95\u0bae\u0bcd</w>",
    "\u0b95\u0bbf|\u0bb3": "\u0b95\u0bbf\u0bb3",
    "\u0b95\u0bbf\u0bb3|\u0bbf</w>": "\u0b95\u0bbf\u0bb3\u0bbf</w>",
    "\u0baa\u0bc1|\u0bb1": "\u0baa\u0bc1\u0bb1",
    "\u0baa\u0bc1\u0bb1|\u0bbe</w>": "\u0baa\u0bc1\u0bb1\u0bbe</w>",
    "\u0b95\u0bcb|\u0bb4\u0bbf</w>": "\u0b95\u0bcb\u0bb4\u0bbf</w>",
    "\u0b86|\u0baa\u0bcd\u0baa": "\u0b86\u0baa\u0bcd\u0baa",
    "\u0b86\u0baa\u0bcd\u0baa|\u0bbf\u0bb3\u0bcd</w>": "\u0b86\u0baa\u0bcd\u0baa\u0bbf\u0bb3\u0bcd</w>",
    "\u0bb5\u0bbe\u0bb4|\u0bc8\u0baa\u0bcd\u0baa": "\u0bb5\u0bbe\u0bb4\u0bc8\u0baa\u0bcd\u0baa",
    "\u0bb5\u0bbe\u0bb4\u0bc8\u0baa\u0bcd\u0baa|\u0bb4\u0bae\u0bcd</w>": "\u0bb5\u0bbe\u0bb4\u0bc8\u0baa\u0bcd\u0baa\u0bb4\u0bae\u0bcd</w>",
    "\u0bae\u0bbe|\u0bae\u0bcd\u0baa": "\u0bae\u0bbe\u0bae\u0bcd\u0baa",
    "\u0bae\u0bbe\u0bae\u0bcd\u0baa|\u0bb4\u0bae\u0bcd</w>": "\u0bae\u0bbe\u0bae\u0bcd\u0baa\u0bb4\u0bae\u0bcd</w>",
    "\u0ba4\u0bbf\u0bb0|\u0bbe": "\u0ba4\u0bbf\u0bb0\u0bbe",
    "\u0ba4\u0bbf\u0bb0\u0bbe|\u0b9f": "\u0ba4\u0bbf\u0bb0\u0bbe\u0b9f",
    "\u0ba4\u0bbf\u0bb0\u0bbe\u0b9f|\u0bcd\u0b9a": "\u0ba4\u0bbf\u0bb0\u0bbe\u0b9f\u0bcd\u0b9a",
    "\u0ba4\u0bbf\u0bb0\u0bbe\u0b9f\u0bcd\u0b9a|\u0bc8</w>": "\u0ba4\u0bbf\u0bb0\u0bbe\u0b9f\u0bcd\u0b9a\u0bc8</w>",
    "\u0b85|\u0bb0\u0bbf": "\u0b85\u0bb0\u0bbf",
    "\u0b85\u0bb0\u0bbf|\u0b9a\u0bbf</w>": "\u0b85\u0bb0\u0bbf\u0b9a\u0bbf</w>",
    "\u0ba4\u0bcb|\u0b9a\u0bc8</w>": "\u0ba4\u0bcb\u0b9a\u0bc8</w>",
    "\u0b87\u0b9f|\u0bbf\u0baf": "\u0b87\u0b9f\u0bbf\u0baf",
    "\u0b87\u0b9f\u0bbf\u0baf|\u0bbe\u0baa": "\u0b87\u0b9f\u0bbf\u0baf\u0bbe\u0baa",
    "\u0b87\u0b9f\u0bbf\u0baf\u0bbe\u0baa|\u0bcd\u0baa\u0bae\u0bcd</w>": "\u0b87\u0b9f\u0bbf\u0baf\u0bbe\u0baa\u0bcd\u0baa\u0bae\u0bcd</w>",
    "\u0baa\u0bc2|\u0bb0\u0bbf</w>": "\u0baa\u0bc2\u0bb0\u0bbf</w>",
    "\u0b95|\u0bbe\u0baa": "\u0b95\u0bbe\u0baa",
    "\u0b95\u0bbe\u0baa|\u0bbf</w>": "\u0b95\u0bbe\u0baa\u0bbf</w>",
    "\u0ba4\u0bc7|\u0ba8\u0bc0": "\u0ba4\u0bc7\u0ba8\u0bc0",
    "\u0ba4\u0bc7\u0ba8\u0bc0|\u0bb0\u0bcd</w>": "\u0ba4\u0bc7\u0ba8\u0bc0\u0bb0\u0bcd</w>",
    "\u0baa\u0bbe|\u0bb2\u0bcd</w>": "\u0baa\u0bbe\u0bb2\u0bcd</w>",
    "\u0ba4|\u0ba3\u0bcd\u0ba3": "\u0ba4\u0ba3\u0bcd\u0ba3",
    "\u0ba4\u0ba3\u0bcd\u0ba3|\u0bc0\u0bb0\u0bcd</w>": "\u0ba4\u0ba3\u0bcd\u0ba3\u0bc0\u0bb0\u0bcd</w>",
    "\u0b92|\u0ba9\u0bcd\u0bb1\u0bc1</w>": "\u0b92\u0ba9\u0bcd\u0bb1\u0bc1</w>",
    "\u0b87\u0bb0|\u0ba3\u0bcd\u0b9f\u0bc1</w>": "\u0b87\u0bb0\u0ba3\u0bcd\u0b9f\u0bc1</w>",
    "\u0bae|\u0bc2": "\u0bae\u0bc2",
    "\u0bae\u0bc2|\u0ba9\u0bcd\u0bb1\u0bc1</w>": "\u0bae\u0bc2\u0ba9\u0bcd\u0bb1\u0bc1</w>",
    "\u0ba8\u0bbe|\u0ba9": "\u0ba8\u0bbe\u0ba9",
    "\u0ba8\u0bbe\u0ba9|\u0bcd\u0b95": "\u0ba8\u0bbe\u0ba9\u0bcd\u0b95",
    "\u0ba8\u0bbe\u0ba9\u0bcd\u0b95|\u0bc1</w>": "\u0ba8\u0bbe\u0ba9\u0bcd\u0b95\u0bc1</w>",
    "\u0b90|\u0ba8\u0bcd\u0ba4\u0bc1</w>": "\u0b90\u0ba8\u0bcd\u0ba4\u0bc1</w>",
    "\u0b86|\u0bb1\u0bc1</w>": "\u0b86\u0bb1\u0bc1</w>",
    "\u0b8f|\u0bb4": "\u0b8f\u0bb4",
    "\u0b8f\u0bb4|\u0bc1</w>": "\u0b8f\u0bb4\u0bc1</w>",
    "\u0b8e|\u0b9f\u0bcd\u0b9f\u0bc1</w>": "\u0b8e\u0b9f\u0bcd\u0b9f\u0bc1</w>",
    "\u0b92|\u0ba9": "\u0b92\u0ba9",
    "\u0b92\u0ba9|\u0bcd\u0baa": "\u0b92\u0ba9\u0bcd\u0baa",
    "\u0b92\u0ba9\u0bcd\u0baa|\u0ba4": "\u0b92\u0ba9\u0bcd\u0baa\u0ba4",
    "\u0b92\u0ba9\u0bcd\u0baa\u0ba4|\u0bc1</w>": "\u0b92\u0ba9\u0bcd\u0baa\u0ba4\u0bc1</w>",
    "\u0baa|\u0ba4\u0bcd\u0ba4": "\u0baa\u0ba4\u0bcd\u0ba4",
    "\u0baa\u0ba4\u0bcd\u0ba4|\u0bc1</w>": "\u0baa\u0ba4\u0bcd\u0ba4\u0bc1</w>",
    "\u0ba8|\u0bc2": "\u0ba8\u0bc2",
    "\u0ba8\u0bc2|\u0bb1\u0bc1</w>": "\u0ba8\u0bc2\u0bb1\u0bc1</w>",
    "\u0b86|\u0baf": "\u0b86\u0baf",
    "\u0b86\u0baf|\u0bbf\u0bb0\u0bae\u0bcd</w>": "\u0b86\u0baf\u0bbf\u0bb0\u0bae\u0bcd</w>",
    "\u0bb5\u0ba3|\u0b95\u0bcd\u0b95\u0bae\u0bcd</w>": "\u0bb5\u0ba3\u0b95\u0bcd\u0b95\u0bae\u0bcd</w>",
    "\u0ba8|\u0ba9\u0bcd\u0bb1": "\u0ba8\u0ba9\u0bcd\u0bb1",
    "\u0ba8\u0ba9\u0bcd\u0bb1|\u0bbf</w>": "\u0ba8\u0ba9\u0bcd\u0bb1\u0bbf</w>",
    "\u0bae|\u0ba9\u0bcd": "\u0bae\u0ba9\u0bcd",
    "\u0bae\u0ba9\u0bcd|\u0ba9\u0bbf": "\u0bae\u0ba9\u0bcd\u0ba9\u0bbf",
    "\u0bae\u0ba9\u0bcd\u0ba9\u0bbf|\u0b95\u0bcd\u0b95": "\u0bae\u0ba9\u0bcd\u0ba9\u0bbf\u0b95\u0bcd\u0b95",
    "\u0bae\u0ba9\u0bcd\u0ba9\u0bbf\u0b95\u0bcd\u0b95|\u0bb5": "\u0bae\u0ba9\u0bcd\u0ba9\u0bbf\u0b95\u0bcd\u0b95\u0bb5",
    "\u0bae\u0ba9\u0bcd\u0ba9\u0bbf\u0b95\u0bcd\u0b95\u0bb5|\u0bc1\u0bae\u0bcd</w>": "\u0bae\u0ba9\u0bcd\u0ba9\u0bbf\u0b95\u0bcd\u0b95\u0bb5\u0bc1\u0bae\u0bcd</w>",
    "\u0ba4\u0baf|\u0bb5\u0bc1": "\u0ba4\u0baf\u0bb5\u0bc1",
    "\u0ba4\u0baf\u0bb5\u0bc1|\u0b9a\u0bc6\u0baf\u0bcd\u0ba4": "\u0ba4\u0baf\u0bb5\u0bc1\u0b9a\u0bc6\u0baf\u0bcd\u0ba4",
    "\u0ba4\u0baf\u0bb5\u0bc1\u0b9a\u0bc6\u0baf\u0bcd\u0ba4|\u0bc1</w>": "\u0ba4\u0baf\u0bb5\u0bc1\u0b9a\u0bc6\u0baf\u0bcd\u0ba4\u0bc1</w>",
    "\u0baa\u0bb3\u0bcd\u0bb3|\u0bbf": "\u0baa\u0bb3\u0bcd\u0bb3\u0bbf",
    "\u0baa\u0bb3\u0bcd\u0bb3\u0bbf|\u0b95\u0bcd\u0b95": "\u0baa\u0bb3\u0bcd\u0bb3\u0bbf\u0b95\u0bcd\u0b95",
    "\u0baa\u0bb3\u0bcd\u0bb3\u0bbf\u0b95\u0bcd\u0b95|\u0bc2": "\u0baa\u0bb3\u0bcd\u0bb3\u0bbf\u0b95\u0bcd\u0b95\u0bc2",
    "\u0baa\u0bb3\u0bcd\u0bb3\u0bbf\u0b95\u0bcd\u0b95\u0bc2|\u0b9f\u0bae\u0bcd</w>": "\u0baa\u0bb3\u0bcd\u0bb3\u0bbf\u0b95\u0bcd\u0b95\u0bc2\u0b9f\u0bae\u0bcd</w>",
    "\u0bae\u0bbe\u0ba3|\u0bb5\u0bbf</w>": "\u0bae\u0bbe\u0ba3\u0bb5\u0bbf</w>",
    "\u0bb5\u0bc0|\u0b9f\u0bcd\u0b9f": "\u0bb5\u0bc0\u0b9f\u0bcd\u0b9f",
    "\u0bb5\u0bc0\u0b9f\u0bcd\u0b9f|\u0bc1\u0baa\u0bcd\u0baa": "\u0bb5\u0bc0\u0b9f\u0bcd\u0b9f\u0bc1\u0baa\u0bcd\u0baa",
    "\u0bb5\u0bc0\u0b9f\u0bcd\u0b9f\u0bc1\u0baa\u0bcd\u0baa|\u0bbe": "\u0bb5\u0bc0\u0b9f\u0bcd\u0b9f\u0bc1\u0baa\u0bcd\u0baa\u0bbe",
    "\u0bb5\u0bc0\u0b9f\u0bcd\u0b9f\u0bc1\u0baa\u0bcd\u0baa\u0bbe|\u0b9f\u0bae\u0bcd</w>": "\u0bb5\u0bc0\u0b9f\u0bcd\u0b9f\u0bc1\u0baa\u0bcd\u0baa\u0bbe\u0b9f\u0bae\u0bcd</w>",
    "\u0bae\u0ba4|\u0bbf\u0baa\u0bcd\u0baa": "\u0bae\u0ba4\u0bbf\u0baa\u0bcd\u0baa",
    "\u0bae\u0ba4\u0bbf\u0baa\u0bcd\u0baa|\u0bc6\u0ba3\u0bcd</w>": "\u0bae\u0ba4\u0bbf\u0baa\u0bcd\u0baa\u0bc6\u0ba3\u0bcd</w>",
    "\u0b85|\u0bb4": "\u0b85\u0bb4",
    "\u0b85\u0bb4|\u0bbf\u0baa\u0bcd\u0baa": "\u0b85\u0bb4\u0bbf\u0baa\u0bcd\u0baa",
    "\u0b85\u0bb4\u0bbf\u0baa\u0bcd\u0baa|\u0bbe": "\u0b85\u0bb4\u0bbf\u0baa\u0bcd\u0baa\u0bbe",
    "\u0b85\u0bb4\u0bbf\u0baa\u0bcd\u0baa\u0bbe|\u0ba9\u0bcd</w>": "\u0b85\u0bb4\u0bbf\u0baa\u0bcd\u0baa\u0bbe\u0ba9\u0bcd</w>",
    "\u0b95\u0bbe|\u0bb2": "\u0b95\u0bbe\u0bb2",
    "\u0b95\u0bbe\u0bb2|\u0bcd\u0baa": "\u0b95\u0bbe\u0bb2\u0bcd\u0baa",
    "\u0b95\u0bbe\u0bb2\u0bcd\u0baa|\u0ba8\u0bcd\u0ba4\u0bc1</w>": "\u0b95\u0bbe\u0bb2\u0bcd\u0baa\u0ba8\u0bcd\u0ba4\u0bc1</w>",
    "\u0b95\u0bc8\u0baa\u0bcd\u0baa|\u0ba8\u0bcd\u0ba4\u0bc1</w>": "\u0b95\u0bc8\u0baa\u0bcd\u0baa\u0ba8\u0bcd\u0ba4\u0bc1</w>",
    "\u0b95\u0bbf|\u0bb0\u0bbf": "\u0b95\u0bbf\u0bb0\u0bbf",
    "\u0b95\u0bbf\u0bb0\u0bbf|\u0b95\u0bcd\u0b95": "\u0b95\u0bbf\u0bb0\u0bbf\u0b95\u0bcd\u0b95",
    "\u0b95\u0bbf\u0bb0\u0bbf\u0b95\u0bcd\u0b95|\u0bc6": "\u0b95\u0bbf\u0bb0\u0bbf\u0b95\u0bcd\u0b95\u0bc6",
    "\u0b95\u0bbf\u0bb0\u0bbf\u0b95\u0bcd\u0b95\u0bc6|\u0b9f": "\u0b95\u0bbf\u0bb0\u0bbf\u0b95\u0bcd\u0b95\u0bc6\u0b9f",
    "\u0b95\u0bbf\u0bb0\u0bbf\u0b95\u0bcd\u0b95\u0bc6\u0b9f|\u0bcd</w>": "\u0b95\u0bbf\u0bb0\u0bbf\u0b95\u0bcd\u0b95\u0bc6\u0b9f\u0bcd</w>",
    "\u0b93|\u0b9f\u0bc1\u0ba4": "\u0b93\u0b9f\u0bc1\u0ba4",
    "\u0b93\u0b9f\u0bc1\u0ba4|\u0bb2\u0bcd</w>": "\u0b93\u0b9f\u0bc1\u0ba4\u0bb2\u0bcd</w>",
    "\u0ba4\u0bbe|\u0ba3\u0bcd\u0b9f": "\u0ba4\u0bbe\u0ba3\u0bcd\u0b9f",
    "\u0ba4\u0bbe\u0ba3\u0bcd\u0b9f|\u0bc1\u0ba4\u0bb2\u0bcd</w>": "\u0ba4\u0bbe\u0ba3\u0bcd\u0b9f\u0bc1\u0ba4\u0bb2\u0bcd</w>",
    "\u0ba8\u0bc0|\u0b9a\u0bcd\u0b9a": "\u0ba8\u0bc0\u0b9a\u0bcd\u0b9a",
    "\u0ba8\u0bc0\u0b9a\u0bcd\u0b9a|\u0bb2\u0bcd</w>": "\u0ba8\u0bc0\u0b9a\u0bcd\u0b9a\u0bb2\u0bcd</w>",
    "\u0b9a|\u0bc8\u0b95\u0bcd\u0b95": "\u0b9a\u0bc8\u0b95\u0bcd\u0b95",
    "\u0b9a\u0bc8\u0b95\u0bcd\u0b95|\u0bbf\u0bb3\u0bcd</w>": "\u0b9a\u0bc8\u0b95\u0bcd\u0b95\u0bbf\u0bb3\u0bcd</w>",
    "\u0b9a\u0bbf|\u0ba9\u0bbf": "\u0b9a\u0bbf\u0ba9\u0bbf",
    "\u0b9a\u0bbf\u0ba9\u0bbf|\u0bae\u0bbe</w>": "\u0b9a\u0bbf\u0ba9\u0bbf\u0bae\u0bbe</w>",
    "\u0ba8\u0b9f|\u0ba9\u0bae\u0bcd</w>": "\u0ba8\u0b9f\u0ba9\u0bae\u0bcd</w>",
    "\u0b9a\u0bc6\u0baf\u0bcd\u0ba4|\u0bbf": "\u0b9a\u0bc6\u0baf\u0bcd\u0ba4\u0bbf",
    "\u0b9a\u0bc6\u0baf\u0bcd\u0ba4\u0bbf|\u0ba4\u0bcd\u0ba4": "\u0b9a\u0bc6\u0baf\u0bcd\u0ba4\u0bbf\u0ba4\u0bcd\u0ba4",
    "\u0b9a\u0bc6\u0baf\u0bcd\u0ba4\u0bbf\u0ba4\u0bcd\u0ba4|\u0bbe": "\u0b9a\u0bc6\u0baf\u0bcd\u0ba4\u0bbf\u0ba4\u0bcd\u0ba4\u0bbe",
    "\u0b9a\u0bc6\u0baf\u0bcd\u0ba4\u0bbf\u0ba4\u0bcd\u0ba4\u0bbe|\u0bb3\u0bcd</w>": "\u0b9a\u0bc6\u0baf\u0bcd\u0ba4\u0bbf\u0ba4\u0bcd\u0ba4\u0bbe\u0bb3\u0bcd</w>",
    "\u0ba4\u0bca\u0bb2|\u0bc8\u0b95\u0bcd\u0b95\u0bbe": "\u0ba4\u0bca\u0bb2\u0bc8\u0b95\u0bcd\u0b95\u0bbe",
    "\u0ba4\u0bca\u0bb2\u0bc8\u0b95\u0bcd\u0b95\u0bbe|\u0b9f\u0bcd\u0b9a\u0bbf</w>": "\u0ba4\u0bca\u0bb2\u0bc8\u0b95\u0bcd\u0b95\u0bbe\u0b9f\u0bcd\u0b9a\u0bbf</w>",
    "\u0b95|\u0ba3": "\u0b95\u0ba3",
    "\u0b95\u0ba3|\u0bbf": "\u0b95\u0ba3\u0bbf",
    "\u0b95\u0ba3\u0bbf|\u0ba9\u0bbf": "\u0b95\u0ba3\u0bbf\u0ba9\u0bbf",
    "\u0b95\u0ba3\u0bbf\u0ba9\u0bbf|</w>": "\u0b95\u0ba3\u0bbf\u0ba9\u0bbf</w>",
    "\u0ba4\u0bca\u0bb2|\u0bc8\u0baa": "\u0ba4\u0bca\u0bb2\u0bc8\u0baa",
    "\u0ba4\u0bca\u0bb2\u0bc8\u0baa|\u0bc7": "\u0ba4\u0bca\u0bb2\u0bc8\u0baa\u0bc7",
    "\u0ba4\u0bca\u0bb2\u0bc8\u0baa\u0bc7|\u0b9a\u0bbf</w>": "\u0ba4\u0bca\u0bb2\u0bc8\u0baa\u0bc7\u0b9a\u0bbf</w>",
    "\u0b87|\u0ba3": "\u0b87\u0ba3",
    "\u0b87\u0ba3|\u0bc8\u0baf": "\u0b87\u0ba3\u0bc8\u0baf",
    "\u0b87\u0ba3\u0bc8\u0baf|\u0bae\u0bcd</w>": "\u0b87\u0ba3\u0bc8\u0baf\u0bae\u0bcd</w>",
    "\u0bae|\u0bb0\u0bc1\u0ba4\u0bcd\u0ba4": "\u0bae\u0bb0\u0bc1\u0ba4\u0bcd\u0ba4",
    "\u0bae\u0bb0\u0bc1\u0ba4\u0bcd\u0ba4|\u0bc1": "\u0bae\u0bb0\u0bc1\u0ba4\u0bcd\u0ba4\u0bc1",
    "\u0bae\u0bb0\u0bc1\u0ba4\u0bcd\u0ba4\u0bc1|\u0bb5\u0bb0\u0bcd</w>": "\u0bae\u0bb0\u0bc1\u0ba4\u0bcd\u0ba4\u0bc1\u0bb5\u0bb0\u0bcd</w>",
    "\u0baa|\u0bca": "\u0baa\u0bca",
    "\u0baa\u0bca|\u0bb1": "\u0baa\u0bca\u0bb1",
    "\u0baa\u0bca\u0bb1|\u0bbf\u0baf": "\u0baa\u0bca\u0bb1\u0bbf\u0baf",
    "\u0baa\u0bca\u0bb1\u0bbf\u0baf|\u0bbe\u0bb3\u0bb0\u0bcd</w>": "\u0baa\u0bca\u0bb1\u0bbf\u0baf\u0bbe\u0bb3\u0bb0\u0bcd</w>",
    "\u0bb5|\u0bb4": "\u0bb5\u0bb4",
    "\u0bb5\u0bb4|\u0b95\u0bcd\u0b95": "\u0bb5\u0bb4\u0b95\u0bcd\u0b95",
    "\u0bb5\u0bb4\u0b95\u0bcd\u0b95|\u0bb1\u0bbf": "\u0bb5\u0bb4\u0b95\u0bcd\u0b95\u0bb1\u0bbf",
    "\u0bb5\u0bb4\u0b95\u0bcd\u0b95\u0bb1\u0bbf|\u0b9e\u0bb0\u0bcd</w>": "\u0bb5\u0bb4\u0b95\u0bcd\u0b95\u0bb1\u0bbf\u0b9e\u0bb0\u0bcd</w>",
    "\u0bb5\u0ba3|\u0bbf\u0b95\u0bb0\u0bcd</w>": "\u0bb5\u0ba3\u0bbf\u0b95\u0bb0\u0bcd</w>",
    "\u0b95|\u0bc8": "\u0b95\u0bc8",
    "\u0b95\u0bc8|\u0bb5\u0bbf": "\u0b95\u0bc8\u0bb5\u0bbf",
    "\u0b95\u0bc8\u0bb5\u0bbf|\u0ba9": "\u0b95\u0bc8\u0bb5\u0bbf\u0ba9",
    "\u0b95\u0bc8\u0bb5\u0bbf\u0ba9|\u0bc8": "\u0b95\u0bc8\u0bb5\u0bbf\u0ba9\u0bc8",
    "\u0b95\u0bc8\u0bb5\u0bbf\u0ba9\u0bc8|\u0b9e\u0bb0\u0bcd</w>": "\u0b95\u0bc8\u0bb5\u0bbf\u0ba9\u0bc8\u0b9e\u0bb0\u0bcd</w>",
    "\u0bb5\u0bc7|\u0bb2": "\u0bb5\u0bc7\u0bb2",
    "\u0bb5\u0bc7\u0bb2|\u0bc8\u0baf\u0bbe": "\u0bb5\u0bc7\u0bb2\u0bc8\u0baf\u0bbe",
    "\u0bb5\u0bc7\u0bb2\u0bc8\u0baf\u0bbe|\u0bb3\u0bcd</w>": "\u0bb5\u0bc7\u0bb2\u0bc8\u0baf\u0bbe\u0bb3\u0bcd</w>",
    "\u0bae|\u0bc1\u0ba4": "\u0bae\u0bc1\u0ba4",
    "\u0bae\u0bc1\u0ba4|\u0bb2": "\u0bae\u0bc1\u0ba4\u0bb2",
    "\u0bae\u0bc1\u0ba4\u0bb2|\u0bbe\u0bb3\u0bbf</w>": "\u0bae\u0bc1\u0ba4\u0bb2\u0bbe\u0bb3\u0bbf</w>",
    "\u0baa\u0bbe\u0b9f|\u0b95": "\u0baa\u0bbe\u0b9f\u0b95",
    "\u0baa\u0bbe\u0b9f\u0b95|\u0bb0\u0bcd</w>": "\u0baa\u0bbe\u0b9f\u0b95\u0bb0\u0bcd</w>",
    "\u0b9a\u0bc6|\u0ba9\u0bcd": "\u0b9a\u0bc6\u0ba9\u0bcd",
    "\u0b9a\u0bc6\u0ba9\u0bcd|\u0ba9\u0bc8</w>": "\u0b9a\u0bc6\u0ba9\u0bcd\u0ba9\u0bc8</w>",
    "\u0bae\u0ba4|\u0bc1": "\u0bae\u0ba4\u0bc1",
    "\u0bae\u0ba4\u0bc1|\u0bb0": "\u0bae\u0ba4\u0bc1\u0bb0",
    "\u0bae\u0ba4\u0bc1\u0bb0|\u0bc8</w>": "\u0bae\u0ba4\u0bc1\u0bb0\u0bc8</w>",
    "\u0b95\u0bcb|\u0baf": "\u0b95\u0bcb\u0baf",
    "\u0b95\u0bcb\u0baf|\u0bae\u0bcd\u0baa": "\u0b95\u0bcb\u0baf\u0bae\u0bcd\u0baa",
    "\u0b95\u0bcb\u0baf\u0bae\u0bcd\u0baa|\u0bc1\u0ba4\u0bcd\u0ba4": "\u0b95\u0bcb\u0baf\u0bae\u0bcd\u0baa\u0bc1\u0ba4\u0bcd\u0ba4",
    "\u0b95\u0bcb\u0baf\u0bae\u0bcd\u0baa\u0bc1\u0ba4\u0bcd\u0ba4|\u0bc2\u0bb0\u0bcd</w>": "\u0b95\u0bcb\u0baf\u0bae\u0bcd\u0baa\u0bc1\u0ba4\u0bcd\u0ba4\u0bc2\u0bb0\u0bcd</w>",
    "\u0ba4\u0bbf\u0bb0\u0bc1|\u0b9a": "\u0ba4\u0bbf\u0bb0\u0bc1\u0b9a",
    "\u0ba4\u0bbf\u0bb0\u0bc1\u0b9a|\u0bcd\u0b9a\u0bbf</w>": "\u0ba4\u0bbf\u0bb0\u0bc1\u0b9a\u0bcd\u0b9a\u0bbf</w>",
    "\u0b95\u0bcb|\u0bb5\u0bc8</w>": "\u0b95\u0bcb\u0bb5\u0bc8</w>",
    "\u0b9a\u0bc7|\u0bb2\u0bae\u0bcd</w>": "\u0b9a\u0bc7\u0bb2\u0bae\u0bcd</w>",
    "\u0ba4\u0bbf\u0bb0\u0bc1|\u0ba8": "\u0ba4\u0bbf\u0bb0\u0bc1\u0ba8",
    "\u0ba4\u0bbf\u0bb0\u0bc1\u0ba8|\u0bc6": "\u0ba4\u0bbf\u0bb0\u0bc1\u0ba8\u0bc6",
    "\u0ba4\u0bbf\u0bb0\u0bc1\u0ba8\u0bc6|\u0bb2\u0bcd": "\u0ba4\u0bbf\u0bb0\u0bc1\u0ba8\u0bc6\u0bb2\u0bcd",
    "\u0ba4\u0bbf\u0bb0\u0bc1\u0ba8\u0bc6\u0bb2\u0bcd|\u0bb5\u0bc7": "\u0ba4\u0bbf\u0bb0\u0bc1\u0ba8\u0bc6\u0bb2\u0bcd\u0bb5\u0bc7",
    "\u0ba4\u0bbf\u0bb0\u0bc1\u0ba8\u0bc6\u0bb2\u0bcd\u0bb5\u0bc7|\u0bb2\u0bbf</w>": "\u0ba4\u0bbf\u0bb0\u0bc1\u0ba8\u0bc6\u0bb2\u0bcd\u0bb5\u0bc7\u0bb2\u0bbf</w>",
    "\u0ba4|\u0b9e\u0bcd\u0b9a": "\u0ba4\u0b9e\u0bcd\u0b9a",
    "\u0ba4\u0b9e\u0bcd\u0b9a|\u0bbe": "\u0ba4\u0b9e\u0bcd\u0b9a\u0bbe",
    "\u0ba4\u0b9e\u0bcd\u0b9a\u0bbe|\u0bb5": "\u0ba4\u0b9e\u0bcd\u0b9a\u0bbe\u0bb5",
    "\u0ba4\u0b9e\u0bcd\u0b9a\u0bbe\u0bb5|\u0bc2\u0bb0\u0bcd</w>": "\u0ba4\u0b9e\u0bcd\u0b9a\u0bbe\u0bb5\u0bc2\u0bb0\u0bcd</w>",
    "\u0b87|\u0ba8\u0bcd\u0ba4": "\u0b87\u0ba8\u0bcd\u0ba4",
    "\u0b87\u0ba8\u0bcd\u0ba4|\u0bbf\u0baf": "\u0b87\u0ba8\u0bcd\u0ba4\u0bbf\u0baf",
    "\u0b87\u0ba8\u0bcd\u0ba4\u0bbf\u0baf|\u0bbe</w>": "\u0b87\u0ba8\u0bcd\u0ba4\u0bbf\u0baf\u0bbe</w>",
    "\u0ba4\u0bae\u0bbf\u0bb4|\u0bcd": "\u0ba4\u0bae\u0bbf\u0bb4\u0bcd",
    "\u0ba4\u0bae\u0bbf\u0bb4\u0bcd|\u0ba8\u0bbe": "\u0ba4\u0bae\u0bbf\u0bb4\u0bcd\u0ba8\u0bbe",
    "\u0ba4\u0bae\u0bbf\u0bb4\u0bcd\u0ba8\u0bbe|\u0b9f\u0bc1</w>": "\u0ba4\u0bae\u0bbf\u0bb4\u0bcd\u0ba8\u0bbe\u0b9f\u0bc1</w>",
    "\u0b86\u0b9a\u0bbf|\u0baf": "\u0b86\u0b9a\u0bbf\u0baf",
    "\u0b86\u0b9a\u0bbf\u0baf|\u0bbe</w>": "\u0b86\u0b9a\u0bbf\u0baf\u0bbe</w>",
    "\u0b89|\u0bb2": "\u0b89\u0bb2",
    "\u0b89\u0bb2|\u0b95\u0bae\u0bcd</w>": "\u0b89\u0bb2\u0b95\u0bae\u0bcd</w>",
    "\u0b95\u0bbe|\u0bb2\u0bc8</w>": "\u0b95\u0bbe\u0bb2\u0bc8</w>",
    "\u0bae\u0ba4|\u0bbf\u0baf\u0bae\u0bcd</w>": "\u0bae\u0ba4\u0bbf\u0baf\u0bae\u0bcd</w>",
    "\u0bae\u0bbe|\u0bb2\u0bc8</w>": "\u0bae\u0bbe\u0bb2\u0bc8</w>",
    "\u0b87\u0bb0|\u0bb5\u0bc1</w>": "\u0b87\u0bb0\u0bb5\u0bc1</w>",
    "\u0ba8\u0bc7|\u0bb1\u0bcd\u0bb1\u0bc1</w>": "\u0ba8\u0bc7\u0bb1\u0bcd\u0bb1\u0bc1</w>",
    "\u0b87|\u0ba9\u0bcd\u0bb1\u0bc1</w>": "\u0b87\u0ba9\u0bcd\u0bb1\u0bc1</w>",
    "\u0ba8\u0bbe|\u0bb3": "\u0ba8\u0bbe\u0bb3",
    "\u0ba8\u0bbe\u0bb3|\u0bc8</w>": "\u0ba8\u0bbe\u0bb3\u0bc8</w>",
    "\u0bb5\u0bbe|\u0bb0\u0bae\u0bcd</w>": "\u0bb5\u0bbe\u0bb0\u0bae\u0bcd</w>",
    "\u0bae\u0bbe|\u0ba4\u0bae\u0bcd</w>": "\u0bae\u0bbe\u0ba4\u0bae\u0bcd</w>",
    "\u0bb5\u0bb0\u0bc1|\u0b9f\u0bae\u0bcd</w>": "\u0bb5\u0bb0\u0bc1\u0b9f\u0bae\u0bcd</w>",
    "\u0ba8\u0bc7|\u0bb0\u0bae\u0bcd</w>": "\u0ba8\u0bc7\u0bb0\u0bae\u0bcd</w>",
    "\u0b93|\u0baf": "\u0b93\u0baf",
    "\u0b93\u0baf|\u0bcd\u0bb5\u0bc1</w>": "\u0b93\u0baf\u0bcd\u0bb5\u0bc1</w>",
    "\u0b9a|\u0bae\u0bcd\u0baa": "\u0b9a\u0bae\u0bcd\u0baa",
    "\u0b9a\u0bae\u0bcd\u0baa|\u0bb3": "\u0b9a\u0bae\u0bcd\u0baa\u0bb3",
    "\u0b9a\u0bae\u0bcd\u0baa\u0bb3|\u0bae\u0bcd</w>": "\u0b9a\u0bae\u0bcd\u0baa\u0bb3\u0bae\u0bcd</w>",
    "\u0b9a\u0bc6|\u0bb2": "\u0b9a\u0bc6\u0bb2",
    "\u0b9a\u0bc6\u0bb2|\u0bb5\u0bc1</w>": "\u0b9a\u0bc6\u0bb2\u0bb5\u0bc1</w>",
    "\u0b9a\u0bc7|\u0bae\u0bbf": "\u0b9a\u0bc7\u0bae\u0bbf",
    "\u0b9a\u0bc7\u0bae\u0bbf|\u0baa\u0bcd\u0baa\u0bc1</w>": "\u0b9a\u0bc7\u0bae\u0bbf\u0baa\u0bcd\u0baa\u0bc1</w>",
    "\u0bb5|\u0b99\u0bcd\u0b95": "\u0bb5\u0b99\u0bcd\u0b95",
    "\u0bb5\u0b99\u0bcd\u0b95|\u0bbf</w>": "\u0bb5\u0b99\u0bcd\u0b95\u0bbf</w>",
    "\u0b95|\u0bca": "\u0b95\u0bca",
    "\u0b95\u0bca|\u0b9f": "\u0b95\u0bca\u0b9f",
    "\u0b95\u0bca\u0b9f|\u0bc1\u0baa\u0bcd\u0baa": "\u0b95\u0bca\u0b9f\u0bc1\u0baa\u0bcd\u0baa",
    "\u0b95\u0bca\u0b9f\u0bc1\u0baa\u0bcd\u0baa|\u0ba9\u0bb5\u0bc1</w>": "\u0b95\u0bca\u0b9f\u0bc1\u0baa\u0bcd\u0baa\u0ba9\u0bb5\u0bc1</w>",
    "\u0b9a|\u0bae": "\u0b9a\u0bae",
    "\u0b9a\u0bae|\u0bc8\u0baf": "\u0b9a\u0bae\u0bc8\u0baf",
    "\u0b9a\u0bae\u0bc8\u0baf|\u0bb2\u0bcd</w>": "\u0b9a\u0bae\u0bc8\u0baf\u0bb2\u0bcd</w>",
    "\u0b9a|\u0bbe\u0baa": "\u0b9a\u0bbe\u0baa",
    "\u0b9a\u0bbe\u0baa|\u0bcd\u0baa": "\u0b9a\u0bbe\u0baa\u0bcd\u0baa",
    "\u0b9a\u0bbe\u0baa\u0bcd\u0baa|\u0bbe": "\u0b9a\u0bbe\u0baa\u0bcd\u0baa\u0bbe",
    "\u0b9a\u0bbe\u0baa\u0bcd\u0baa\u0bbe|\u0b9f\u0bc1</w>": "\u0b9a\u0bbe\u0baa\u0bcd\u0baa\u0bbe\u0b9f\u0bc1</w>",
    "\u0b9a\u0bc1|\u0bb5\u0bc8</w>": "\u0b9a\u0bc1\u0bb5\u0bc8</w>",
    "\u0b89|\u0baa\u0bcd\u0baa\u0bc1</w>": "\u0b89\u0baa\u0bcd\u0baa\u0bc1</w>",
    "\u0b95|\u0bb1": "\u0b95\u0bb1",
    "\u0b95\u0bb1|\u0bbf</w>": "\u0b95\u0bb1\u0bbf</w>",
    "\u0b9a\u0bbe|\u0ba4\u0bae\u0bcd</w>": "\u0b9a\u0bbe\u0ba4\u0bae\u0bcd</w>",
    "\u0bb0|\u0b9a\u0bae\u0bcd</w>": "\u0bb0\u0b9a\u0bae\u0bcd</w>",
    "\u0ba4\u0baf|\u0bbf": "\u0ba4\u0baf\u0bbf",
    "\u0ba4\u0baf\u0bbf|\u0bb0\u0bcd</w>": "\u0ba4\u0baf\u0bbf\u0bb0\u0bcd</w>",
    "\u0bae\u0bbf|\u0bb3": "\u0bae\u0bbf\u0bb3",
    "\u0bae\u0bbf\u0bb3|\u0b95\u0bbe": "\u0bae\u0bbf\u0bb3\u0b95\u0bbe",
    "\u0bae\u0bbf\u0bb3\u0b95\u0bbe|\u0baf\u0bcd</w>": "\u0bae\u0bbf\u0bb3\u0b95\u0bbe\u0baf\u0bcd</w>",
    "\u0bb5\u0bc6|\u0b99\u0bcd\u0b95": "\u0bb5\u0bc6\u0b99\u0bcd\u0b95",
    "\u0bb5\u0bc6\u0b99\u0bcd\u0b95|\u0bbe": "\u0bb5\u0bc6\u0b99\u0bcd\u0b95\u0bbe",
    "\u0bb5\u0bc6\u0b99\u0bcd\u0b95\u0bbe|\u0baf\u0bae\u0bcd</w>": "\u0bb5\u0bc6\u0b99\u0bcd\u0b95\u0bbe\u0baf\u0bae\u0bcd</w>",
    "\u0baa\u0bc2|\u0ba3\u0bcd\u0b9f\u0bc1</w>": "\u0baa\u0bc2\u0ba3\u0bcd\u0b9f\u0bc1</w>",
    "\u0bae|\u0b9a\u0bbe": "\u0bae\u0b9a\u0bbe",
    "\u0bae\u0b9a\u0bbe|\u0bb2\u0bbe</w>": "\u0bae\u0b9a\u0bbe\u0bb2\u0bbe</w>",
    "\u0baa|\u0baf": "\u0baa\u0baf",
    "\u0baa\u0baf|\u0ba3\u0bae\u0bcd</w>": "\u0baa\u0baf\u0ba3\u0bae\u0bcd</w>",
    "\u0baa|\u0bb8": "\u0baa\u0bb8",
    "\u0baa\u0bb8|\u0bcd</w>": "\u0baa\u0bb8\u0bcd</w>",
    "\u0bb0|\u0baf\u0bbf\u0bb2\u0bcd</w>": "\u0bb0\u0baf\u0bbf\u0bb2\u0bcd</w>",
    "\u0bb5\u0bbf|\u0bae\u0bbe\u0ba9\u0bae\u0bcd</w>": "\u0bb5\u0bbf\u0bae\u0bbe\u0ba9\u0bae\u0bcd</w>",
    "\u0bb9|\u0bcb": "\u0bb9\u0bcb",
    "\u0bb9\u0bcb|\u0b9f\u0bcd\u0b9f": "\u0bb9\u0bcb\u0b9f\u0bcd\u0b9f",
    "\u0bb9\u0bcb\u0b9f\u0bcd\u0b9f|\u0bb2\u0bcd</w>": "\u0bb9\u0bcb\u0b9f\u0bcd\u0b9f\u0bb2\u0bcd</w>",
    "\u0b9a\u0bc1|\u0bb1\u0bcd\u0bb1": "\u0b9a\u0bc1\u0bb1\u0bcd\u0bb1",
    "\u0b9a\u0bc1\u0bb1\u0bcd\u0bb1|\u0bc1": "\u0b9a\u0bc1\u0bb1\u0bcd\u0bb1\u0bc1",
    "\u0b9a\u0bc1\u0bb1\u0bcd\u0bb1\u0bc1|\u0bb2\u0bbe</w>": "\u0b9a\u0bc1\u0bb1\u0bcd\u0bb1\u0bc1\u0bb2\u0bbe</w>",
    "\u0b87|\u0b9f\u0bae\u0bcd</w>": "\u0b87\u0b9f\u0bae\u0bcd</w>",
    "\u0baa\u0bc1|\u0b95\u0bc8\u0baa\u0bcd\u0baa": "\u0baa\u0bc1\u0b95\u0bc8\u0baa\u0bcd\u0baa",
    "\u0baa\u0bc1\u0b95\u0bc8\u0baa\u0bcd\u0baa|\u0b9f\u0bae\u0bcd</w>": "\u0baa\u0bc1\u0b95\u0bc8\u0baa\u0bcd\u0baa\u0b9f\u0bae\u0bcd</w>",
    "\u0ba8|\u0bbf\u0ba9": "\u0ba8\u0bbf\u0ba9",
    "\u0ba8\u0bbf\u0ba9|\u0bc8": "\u0ba8\u0bbf\u0ba9\u0bc8",
    "\u0ba8\u0bbf\u0ba9\u0bc8|\u0bb5\u0bc1</w>": "\u0ba8\u0bbf\u0ba9\u0bc8\u0bb5\u0bc1</w>",
    "\u0b95\u0b9f|\u0bb5\u0bc1": "\u0b95\u0b9f\u0bb5\u0bc1",
    "\u0b95\u0b9f\u0bb5\u0bc1|\u0bb3\u0bcd</w>": "\u0b95\u0b9f\u0bb5\u0bc1\u0bb3\u0bcd</w>",
    "\u0baa\u0bc2|\u0b9c": "\u0baa\u0bc2\u0b9c",
    "\u0baa\u0bc2\u0b9c|\u0bc8</w>": "\u0baa\u0bc2\u0b9c\u0bc8</w>",
    "\u0b86|\u0bb2": "\u0b86\u0bb2",
    "\u0b86\u0bb2|\u0baf\u0bae\u0bcd</w>": "\u0b86\u0bb2\u0baf\u0bae\u0bcd</w>",
    "\u0baa|\u0bbf\u0bb0": "\u0baa\u0bbf\u0bb0",
    "\u0baa\u0bbf\u0bb0|\u0bbe": "\u0baa\u0bbf\u0bb0\u0bbe",
    "\u0baa\u0bbf\u0bb0\u0bbe|\u0bb0": "\u0baa\u0bbf\u0bb0\u0bbe\u0bb0",
    "\u0baa\u0bbf\u0bb0\u0bbe\u0bb0|\u0bcd\u0ba4": "\u0baa\u0bbf\u0bb0\u0bbe\u0bb0\u0bcd\u0ba4",
    "\u0baa\u0bbf\u0bb0\u0bbe\u0bb0\u0bcd\u0ba4|\u0bcd\u0ba4": "\u0baa\u0bbf\u0bb0\u0bbe\u0bb0\u0bcd\u0ba4\u0bcd\u0ba4",
    "\u0baa\u0bbf\u0bb0\u0bbe\u0bb0\u0bcd\u0ba4\u0bcd\u0ba4|\u0ba9\u0bc8</w>": "\u0baa\u0bbf\u0bb0\u0bbe\u0bb0\u0bcd\u0ba4\u0bcd\u0ba4\u0ba9\u0bc8</w>",
    "\u0ba4|\u0bc6": "\u0ba4\u0bc6",
    "\u0ba4\u0bc6|\u0baf": "\u0ba4\u0bc6\u0baf",
    "\u0ba4\u0bc6\u0baf|\u0bcd": "\u0ba4\u0bc6\u0baf\u0bcd",
    "\u0ba4\u0bc6\u0baf\u0bcd|\u0bb5\u0bae\u0bcd</w>": "\u0ba4\u0bc6\u0baf\u0bcd\u0bb5\u0bae\u0bcd</w>",
    "\u0baa\u0bc1|\u0ba3\u0bcd\u0ba3": "\u0baa\u0bc1\u0ba3\u0bcd\u0ba3",
    "\u0baa\u0bc1\u0ba3\u0bcd\u0ba3|\u0bbf\u0baf\u0bae\u0bcd</w>": "\u0baa\u0bc1\u0ba3\u0bcd\u0ba3\u0bbf\u0baf\u0bae\u0bcd</w>",
    "\u0baa\u0bbe|\u0bb5\u0bae\u0bcd</w>": "\u0baa\u0bbe\u0bb5\u0bae\u0bcd</w>",
    "\u0bae|\u0bcb": "\u0bae\u0bcb",
    "\u0bae\u0bcb|\u0b9f": "\u0bae\u0bcb\u0b9f",
    "\u0bae\u0bcb\u0b9f|\u0bcd": "\u0bae\u0bcb\u0b9f\u0bcd",
    "\u0bae\u0bcb\u0b9f\u0bcd|\u0b9a\u0bae\u0bcd</w>": "\u0bae\u0bcb\u0b9f\u0bcd\u0b9a\u0bae\u0bcd</w>",
    "\u0b8e|\u0ba3\u0bcd\u0ba3": "\u0b8e\u0ba3\u0bcd\u0ba3",
    "\u0b8e\u0ba3\u0bcd\u0ba3|\u0bae\u0bcd</w>": "\u0b8e\u0ba3\u0bcd\u0ba3\u0bae\u0bcd</w>",
    "\u0b9a\u0bbf|\u0ba8\u0bcd\u0ba4": "\u0b9a\u0bbf\u0ba8\u0bcd\u0ba4",
    "\u0b9a\u0bbf\u0ba8\u0bcd\u0ba4|\u0ba9\u0bc8</w>": "\u0b9a\u0bbf\u0ba8\u0bcd\u0ba4\u0ba9\u0bc8</w>",
    "\u0b9e|\u0bbe\u0baa": "\u0b9e\u0bbe\u0baa",
    "\u0b9e\u0bbe\u0baa|\u0b95\u0bae\u0bcd</w>": "\u0b9e\u0bbe\u0baa\u0b95\u0bae\u0bcd</w>",
    "\u0bae|\u0bb1": "\u0bae\u0bb1",
    "\u0bae\u0bb1|\u0ba4": "\u0bae\u0bb1\u0ba4",
    "\u0bae\u0bb1\u0ba4|\u0bbf</w>": "\u0bae\u0bb1\u0ba4\u0bbf</w>",
    "\u0b95|\u0bc7": "\u0b95\u0bc7",
    "\u0b95\u0bc7|\u0bb3\u0bcd": "\u0b95\u0bc7\u0bb3\u0bcd",
    "\u0b95\u0bc7\u0bb3\u0bcd|\u0bb5\u0bbf</w>": "\u0b95\u0bc7\u0bb3\u0bcd\u0bb5\u0bbf</w>",
    "\u0baa|\u0ba4": "\u0baa\u0ba4",
    "\u0baa\u0ba4|\u0bbf\u0bb2\u0bcd</w>": "\u0baa\u0ba4\u0bbf\u0bb2\u0bcd</w>",
    "\u0bb5\u0bbf\u0bb3|\u0b95\u0bcd\u0b95\u0bae\u0bcd</w>": "\u0bb5\u0bbf\u0bb3\u0b95\u0bcd\u0b95\u0bae\u0bcd</w>",
    "\u0baa\u0bc1|\u0bb0\u0bbf": "\u0baa\u0bc1\u0bb0\u0bbf",
    "\u0baa\u0bc1\u0bb0\u0bbf|\u0ba4": "\u0baa\u0bc1\u0bb0\u0bbf\u0ba4",
    "\u0baa\u0bc1\u0bb0\u0bbf\u0ba4|\u0bb2\u0bcd</w>": "\u0baa\u0bc1\u0bb0\u0bbf\u0ba4\u0bb2\u0bcd</w>",
    "\u0b95|\u0ba9\u0bb5\u0bc1</w>": "\u0b95\u0ba9\u0bb5\u0bc1</w>",
    "\u0bae|\u0bca": "\u0bae\u0bca",
    "\u0bae\u0bca|\u0bb4\u0bbf</w>": "\u0bae\u0bca\u0bb4\u0bbf</w>",
    "\u0b87\u0bb2\u0b95\u0bcd\u0b95|\u0bbf\u0baf\u0bae\u0bcd</w>": "\u0b87\u0bb2\u0b95\u0bcd\u0b95\u0bbf\u0baf\u0bae\u0bcd</w>",
    "\u0b95\u0bb5\u0bbf|\u0ba4": "\u0b95\u0bb5\u0bbf\u0ba4",
    "\u0b95\u0bb5\u0bbf\u0ba4|\u0bc8</w>": "\u0b95\u0bb5\u0bbf\u0ba4\u0bc8</w>",
    "\u0b9a|\u0b99\u0bcd\u0b95\u0bae\u0bcd</w>": "\u0b9a\u0b99\u0bcd\u0b95\u0bae\u0bcd</w>",
    "\u0b9a|\u0b99\u0bcd\u0b95": "\u0b9a\u0b99\u0bcd\u0b95",
    "\u0b9a\u0b99\u0bcd\u0b95|\u0b95\u0bbe\u0bb2\u0bae\u0bcd</w>": "\u0b9a\u0b99\u0bcd\u0b95\u0b95\u0bbe\u0bb2\u0bae\u0bcd</w>",
    "\u0baa|\u0bb4\u0ba8\u0bcd\u0ba4": "\u0baa\u0bb4\u0ba8\u0bcd\u0ba4",
    "\u0baa\u0bb4\u0ba8\u0bcd\u0ba4|\u0bae\u0bbf\u0bb4": "\u0baa\u0bb4\u0ba8\u0bcd\u0ba4\u0bae\u0bbf\u0bb4",
    "\u0baa\u0bb4\u0ba8\u0bcd\u0ba4\u0bae\u0bbf\u0bb4|\u0bcd</w>": "\u0baa\u0bb4\u0ba8\u0bcd\u0ba4\u0bae\u0bbf\u0bb4\u0bcd</w>",
    "\u0b87\u0bb2\u0b95\u0bcd\u0b95|\u0ba3\u0bae\u0bcd</w>": "\u0b87\u0bb2\u0b95\u0bcd\u0b95\u0ba3\u0bae\u0bcd</w>",
    "\u0baa\u0bc1|\u0bb2": "\u0baa\u0bc1\u0bb2",
    "\u0baa\u0bc1\u0bb2|\u0bb5\u0bb0\u0bcd</w>": "\u0baa\u0bc1\u0bb2\u0bb5\u0bb0\u0bcd</w>",
    "\u0baa\u0b9f|\u0bc8\u0baa\u0bcd\u0baa": "\u0baa\u0b9f\u0bc8\u0baa\u0bcd\u0baa",
    "\u0baa\u0b9f\u0bc8\u0baa\u0bcd\u0baa|\u0bbe\u0bb3\u0bbf</w>": "\u0baa\u0b9f\u0bc8\u0baa\u0bcd\u0baa\u0bbe\u0bb3\u0bbf</w>",
    "\u0ba8\u0bbe|\u0b9f": "\u0ba8\u0bbe\u0b9f",
    "\u0ba8\u0bbe\u0b9f|\u0b95\u0bae\u0bcd</w>": "\u0ba8\u0bbe\u0b9f\u0b95\u0bae\u0bcd</w>",
    "\u0ba8\u0b9f|\u0bbf\u0b95": "\u0ba8\u0b9f\u0bbf\u0b95",
    "\u0ba8\u0b9f\u0bbf\u0b95|\u0bc8</w>": "\u0ba8\u0b9f\u0bbf\u0b95\u0bc8</w>",
    "\u0b95|\u0ba4\u0bbe": "\u0b95\u0ba4\u0bbe",
    "\u0b95\u0ba4\u0bbe|\u0baa\u0bbe": "\u0b95\u0ba4\u0bbe\u0baa\u0bbe",
    "\u0b95\u0ba4\u0bbe\u0baa\u0bbe|\u0ba4\u0bcd\u0ba4\u0bbf\u0bb0\u0bae\u0bcd</w>": "\u0b95\u0ba4\u0bbe\u0baa\u0bbe\u0ba4\u0bcd\u0ba4\u0bbf\u0bb0\u0bae\u0bcd</w>",
    "\u0bae\u0bc7|\u0b9f\u0bc8</w>": "\u0bae\u0bc7\u0b9f\u0bc8</w>",
    "\u0ba4\u0bbf\u0bb0|\u0bc8</w>": "\u0ba4\u0bbf\u0bb0\u0bc8</w>",
    "\u0baa\u0bbe\u0b9f|\u0bb2\u0bcd</w>": "\u0baa\u0bbe\u0b9f\u0bb2\u0bcd</w>",
    "\u0bb5\u0bc0|\u0bb0": "\u0bb5\u0bc0\u0bb0",
    "\u0bb5\u0bc0\u0bb0|\u0bb0\u0bcd</w>": "\u0bb5\u0bc0\u0bb0\u0bb0\u0bcd</w>",
    "\u0baa|\u0ba8\u0bcd\u0ba4\u0bc1</w>": "\u0baa\u0ba8\u0bcd\u0ba4\u0bc1</w>",
    "\u0b95\u0bcb|\u0bb2\u0bcd</w>": "\u0b95\u0bcb\u0bb2\u0bcd</w>",
    "\u0b85|\u0ba3\u0bbf</w>": "\u0b85\u0ba3\u0bbf</w>",
    "\u0baa|\u0bcb": "\u0baa\u0bcb",
    "\u0baa\u0bcb|\u0b9f\u0bcd\u0b9f\u0bbf</w>": "\u0baa\u0bcb\u0b9f\u0bcd\u0b9f\u0bbf</w>",
    "\u0baa\u0bb0\u0bbf|\u0b9a\u0bc1</w>": "\u0baa\u0bb0\u0bbf\u0b9a\u0bc1</w>",
    "\u0baa\u0bbe\u0bb0|\u0bbe": "\u0baa\u0bbe\u0bb0\u0bbe",
    "\u0baa\u0bbe\u0bb0\u0bbe|\u0b9f\u0bcd\u0b9f\u0bc1</w>": "\u0baa\u0bbe\u0bb0\u0bbe\u0b9f\u0bcd\u0b9f\u0bc1</w>",
    "\u0b95\u0bc1|\u0b9f": "\u0b95\u0bc1\u0b9f",
    "\u0b95\u0bc1\u0b9f|\u0bc1\u0bae": "\u0b95\u0bc1\u0b9f\u0bc1\u0bae",
    "\u0b95\u0bc1\u0b9f\u0bc1\u0bae|\u0bcd\u0baa\u0bae\u0bcd</w>": "\u0b95\u0bc1\u0b9f\u0bc1\u0bae\u0bcd\u0baa\u0bae\u0bcd</w>",
    "\u0b9a\u0bbf|\u0bb0\u0bbf": "\u0b9a\u0bbf\u0bb0\u0bbf",
    "\u0b9a\u0bbf\u0bb0\u0bbf|\u0baa\u0bcd\u0baa\u0bc1</w>": "\u0b9a\u0bbf\u0bb0\u0bbf\u0baa\u0bcd\u0baa\u0bc1</w>",
    "\u0b95\u0ba3\u0bcd\u0ba3|\u0bc0\u0bb0\u0bcd</w>": "\u0b95\u0ba3\u0bcd\u0ba3\u0bc0\u0bb0\u0bcd</w>",
    "\u0b92|\u0ba9\u0bcd\u0bb1": "\u0b92\u0ba9\u0bcd\u0bb1",
    "\u0b92\u0ba9\u0bcd\u0bb1|\u0bbf": "\u0b92\u0ba9\u0bcd\u0bb1\u0bbf",
    "\u0b92\u0ba9\u0bcd\u0bb1\u0bbf|\u0ba3": "\u0b92\u0ba9\u0bcd\u0bb1\u0bbf\u0ba3",
    "\u0b92\u0ba9\u0bcd\u0bb1\u0bbf\u0ba3|\u0bc8": "\u0b92\u0ba9\u0bcd\u0bb1\u0bbf\u0ba3\u0bc8",
    "\u0b92\u0ba9\u0bcd\u0bb1\u0bbf\u0ba3\u0bc8|\u0ba8\u0bcd\u0ba4\u0bc1</w>": "\u0b92\u0ba9\u0bcd\u0bb1\u0bbf\u0ba3\u0bc8\u0ba8\u0bcd\u0ba4\u0bc1</w>",
    "\u0bb5\u0bbe\u0bb4|\u0bcd\u0ba4\u0bb2\u0bcd</w>": "\u0bb5\u0bbe\u0bb4\u0bcd\u0ba4\u0bb2\u0bcd</w>",
    "\u0baa|\u0b95": "\u0baa\u0b95",
    "\u0baa\u0b95|\u0bbf\u0bb0": "\u0baa\u0b95\u0bbf\u0bb0",
    "\u0baa\u0b95\u0bbf\u0bb0|\u0bcd\u0ba4\u0bb2\u0bcd</w>": "\u0baa\u0b95\u0bbf\u0bb0\u0bcd\u0ba4\u0bb2\u0bcd</w>",
    "\u0ba4\u0bca|\u0bb4": "\u0ba4\u0bca\u0bb4",
    "\u0ba4\u0bca\u0bb4|\u0bbf\u0bb2\u0bcd</w>": "\u0ba4\u0bca\u0bb4\u0bbf\u0bb2\u0bcd</w>",
    "\u0baa\u0bb2|\u0ba9\u0bcd</w>": "\u0baa\u0bb2\u0ba9\u0bcd</w>",
    "\u0b9a\u0bbe|\u0ba4": "\u0b9a\u0bbe\u0ba4",
    "\u0b9a\u0bbe\u0ba4|\u0ba9\u0bc8</w>": "\u0b9a\u0bbe\u0ba4\u0ba9\u0bc8</w>",
    "\u0b95|\u0bb2\u0bcd": "\u0b95\u0bb2\u0bcd",
    "\u0b95\u0bb2\u0bcd|\u0bb2": "\u0b95\u0bb2\u0bcd\u0bb2",
    "\u0b95\u0bb2\u0bcd\u0bb2|\u0bc2": "\u0b95\u0bb2\u0bcd\u0bb2\u0bc2",
    "\u0b95\u0bb2\u0bcd\u0bb2\u0bc2|\u0bb0\u0bbf</w>": "\u0b95\u0bb2\u0bcd\u0bb2\u0bc2\u0bb0\u0bbf</w>",
    "\u0baa\u0bb2|\u0bcd\u0b95": "\u0baa\u0bb2\u0bcd\u0b95",
    "\u0baa\u0bb2\u0bcd\u0b95|\u0bb2": "\u0baa\u0bb2\u0bcd\u0b95\u0bb2",
    "\u0baa\u0bb2\u0bcd\u0b95\u0bb2|\u0bc8\u0b95\u0bcd\u0b95": "\u0baa\u0bb2\u0bcd\u0b95\u0bb2\u0bc8\u0b95\u0bcd\u0b95",
    "\u0baa\u0bb2\u0bcd\u0b95\u0bb2\u0bc8\u0b95\u0bcd\u0b95|\u0bb4": "\u0baa\u0bb2\u0bcd\u0b95\u0bb2\u0bc8\u0b95\u0bcd\u0b95\u0bb4",
    "\u0baa\u0bb2\u0bcd\u0b95\u0bb2\u0bc8\u0b95\u0bcd\u0b95\u0bb4|\u0b95\u0bae\u0bcd</w>": "\u0baa\u0bb2\u0bcd\u0b95\u0bb2\u0bc8\u0b95\u0bcd\u0b95\u0bb4\u0b95\u0bae\u0bcd</w>",
    "\u0baa|\u0b9f\u0bcd\u0b9f": "\u0baa\u0b9f\u0bcd\u0b9f",
    "\u0baa\u0b9f\u0bcd\u0b9f|\u0bae\u0bcd</w>": "\u0baa\u0b9f\u0bcd\u0b9f\u0bae\u0bcd</w>",
    "\u0baa\u0bbe\u0bb0|\u0ba4": "\u0baa\u0bbe\u0bb0\u0ba4",
    "\u0baa\u0bbe\u0bb0\u0ba4|\u0bbf\u0baf": "\u0baa\u0bbe\u0bb0\u0ba4\u0bbf\u0baf",
    "\u0baa\u0bbe\u0bb0\u0ba4\u0bbf\u0baf|\u0bbe": "\u0baa\u0bbe\u0bb0\u0ba4\u0bbf\u0baf\u0bbe",
    "\u0baa\u0bbe\u0bb0\u0ba4\u0bbf\u0baf\u0bbe|\u0bb0\u0bcd</w>": "\u0baa\u0bbe\u0bb0\u0ba4\u0bbf\u0baf\u0bbe\u0bb0\u0bcd</w>",
    "\u0baa\u0bbe\u0b9f|\u0bb2": "\u0baa\u0bbe\u0b9f\u0bb2",
    "\u0baa\u0bbe\u0b9f\u0bb2|\u0bcd\u0b95": "\u0baa\u0bbe\u0b9f\u0bb2\u0bcd\u0b95",
    "\u0baa\u0bbe\u0b9f\u0bb2\u0bcd\u0b95|\u0bb3\u0bcd</w>": "\u0baa\u0bbe\u0b9f\u0bb2\u0bcd\u0b95\u0bb3\u0bcd</w>"
  }
}